[PAD]
[UNK]
[CLS]
[SEP]
[MASK]
<S>
<T>
!
"
#
$
%
&
'
(
)
*
+
,
-
.
/
0
1
2
3
4
5
6
7
8
9
:
;
=
?
@
[
]
_
a
b
c
d
e
f
g
h
i
j
k
l
m
n
o
p
q
r
s
t
u
v
w
x
y
z
{
}
¡
£
¿
–
—
‘
’
“
”
…
′
″
€
™
##u
##m
##o
##r
##e
##d
##f
##p
##s
##t
##n
##l
##y
##g
##h
##a
##c
##i
##b
##k
##v
##1
##3
##0
##w
##z
##x
##4
##9
##5
##6
##j
##8
##2
##q
##7
##™
##er
##in
##es
##or
##an
##on
##en
##at
##al
##ar
##ing
to
##it
tr
##is
##ed
##mp
##id
##ic
##il
##ou
tru
trump
th
in
##ion
re
##re
##us
##ac
of
##as
##ro
##el
##ts
for
##eo
##ter
##ay
##ill
the
vid
video
##am
on
##le
##ent
de
an
##om
##ig
st
##ol
##ot
##ur
wh
##ow
##ad
##ak
##ch
##im
##et
##ers
##os
ch
##ut
##iv
##ct
##ate
##ia
##res
##ver
sh
##ly
is
##ack
con
ne
##ir
##ith
and
##th
##ge
with
##ce
##ist
##ation
pro
say
be
##oc
se
ob
at
##un
##and
##se
##pp
##est
##ary
cl
obam
as
##ul
rep
##ra
le
go
says
he
obama
##ain
af
##ican
su
##ust
##ie
##ve
sp
##ian
##igh
new
##ore
ex
pres
##all
ab
##st
##ub
##mer
##ee
un
##ment
bl
##ud
after
##our
##ld
la
##ks
##ial
##uss
##op
al
##illary
pol
wat
##ies
hillary
presid
##end
##ton
##ive
ag
##out
##oun
##ite
over
##ubl
tw
off
##ell
dem
hou
me
russ
##ort
cr
watch
##ction
it
ca
##rom
president
##ity
by
##ess
not
##if
##art
house
##ey
from
##ice
##ran
##ign
about
his
com
sen
pl
republ
clin
republican
clinton
##ail
##od
will
##ight
just
en
##ab
bre
##ib
ar
##um
##ag
##der
white
ad
##rat
bill
##ass
don
amer
out
##ap
law
att
##ake
##gh
co
##ence
wor
dis
##ould
##ters
##ous
##ost
br
##ip
##ik
call
who
democ
ele
res
##ace
her
##ally
##ant
up
war
democrat
sc
##iz
##em
we
sec
this
##are
##ast
you
##ress
russia
ha
##ens
##ans
vot
state
jo
##cc
##ish
pr
bo
exp
do
supp
##man
was
again
##aking
##ear
ref
##ine
us
##own
ta
fl
nor
##eral
that
##ire
##ds
kore
lead
##ok
##uc
##ect
are
med
election
##age
him
north
##pt
##ents
can
black
##vern
##ator
govern
im
te
cour
##err
or
##ina
ro
sy
##ock
##ives
##reat
int
news
attack
back
no
##av
##ec
##act
may
mus
prot
tax
##ft
##ree
##ath
has
all
##ard
court
against
ban
##lim
##ict
gr
min
fir
##ald
##gress
##itic
##ile
korea
def
##mb
camp
comm
##ions
##ick
part
##ates
##ica
##ox
man
ant
cons
muslim
ge
senate
kill
why
offic
media
mo
terr
##hing
how
##ges
##ome
show
tur
syr
##ru
donald
breaking
##ious
american
##ff
##iss
##ns
vote
calls
app
eu
sa
##erv
lib
wom
20
col
inter
##ition
what
##ces
##ry
china
##ning
##ure
gop
plan
##ists
deal
congress
mar
##ide
anti
tal
police
lo
##aign
qu
##ron
campaign
iran
down
##ase
##und
##uge
##nn
see
##rem
act
more
##akes
terror
fin
##ails
car
have
republicans
##leg
if
##lam
##ern
acc
mil
they
cont
rac
one
##yan
tell
##ep
##ade
##eets
suppor
official
##ugh
##ret
##io
##ash
threat
america
senator
russian
##cl
##ief
inv
##ations
par
##ime
##ike
year
##ber
##wn
##ors
ind
conf
##iew
##ich
##ush
##ood
##ration
il
sch
gu
mon
meet
milit
op
##her
##ound
dep
ev
##ple
##als
win
##cy
##its
##bs
##og
ph
prob
gets
comp
gun
democrats
##ism
##ue
##ied
##erman
left
##bi
tweets
work
##old
she
end
coun
resp
imm
##alth
det
##ory
sup
party
##outh
government
##ying
##ame
##ting
put
##ose
fbi
am
adm
peo
but
##ted
##ely
##ren
ass
people
jud
cnn
german
hel
mill
rec
deb
##use
char
##aul
##ister
##ants
##ug
##ger
##orn
##ild
##uring
##ere
syria
vi
##orm
into
top
get
secret
former
##lear
##ert
politic
so
##rop
em
##ance
spee
speech
##itter
first
liberal
health
##ond
##ico
south
turk
##ah
leader
vis
day
##ated
##ons
chief
rem
##00
cla
##one
##ops
##get
san
##ves
##ands
uk
##uts
chr
talks
##oup
their
report
per
##ach
twitter
vo
illeg
##ights
refuge
ma
ever
##mak
won
##ating
bec
secur
tells
ep
##ys
201
immig
during
har
spe
conserv
would
##ines
##ims
under
conservat
than
##lo
could
bor
bom
should
security
ins
did
fact
##ful
##az
##ull
right
minister
air
big
##row
when
suprem
nation
protes
make
fox
opp
dec
aw
dest
kn
sho
miss
islam
imp
##view
##qu
##ool
##ency
sand
adv
viol
pm
##ri
lawmak
reg
sw
poll
invest
des
racist
##oll
##erson
arres
press
brit
them
mex
##ends
del
support
sex
judge
help
##eet
ret
rele
leg
##uz
##ctions
##ough
chan
group
sour
host
##day
sanders
##ned
##xit
face
##gy
##oss
repor
destro
##aks
arm
ira
cor
##ene
stud
governor
iraq
##ings
ur
women
rul
##air
fore
two
brexit
million
##ong
fund
disc
fed
##ise
##ical
own
str
fight
ra
##king
mat
makes
want
##oses
nom
military
ve
##udi
run
tweet
foreign
does
fake
trans
school
dr
sur
cruz
probe
##ames
need
putin
##uclear
americans
sus
bef
##box
being
before
##ilar
ann
shows
christ
factbox
nuclear
your
cit
hack
##ili
like
time
##ty
##care
cand
old
sl
##elf
woman
nomin
bar
wants
##ues
pan
##eal
bern
vict
hum
supreme
investig
head
border
candid
pay
hilar
post
presidential
fran
turkey
##ctor
inf
gen
soc
here
hilarious
cat
supporters
goes
expl
polic
take
open
national
rel
high
##acare
##ower
obamacare
##els
respon
ny
fe
##able
rally
bernie
pre
our
illegal
dire
wow
emb
saudi
susp
bro
##mar
##ya
##ible
##ual
dead
##ady
most
mich
bra
po
##ked
prop
sanctions
sign
joh
bus
##uck
##land
race
##tle
##les
##ther
mexico
fam
##we
##ows
visit
mcc
set
##ife
world
healthcare
free
critic
sm
##int
##ind
##ott
##imate
rights
bu
##osition
##eep
child
##ave
je
##ders
##ery
##ged
##rupt
meeting
debate
##bo
islamic
social
hol
##ily
pe
ryan
##xt
##ense
inc
death
quest
let
test
##ork
attacks
stop
##bc
isra
contro
political
israel
bid
now
##acy
every
ap
bet
rap
##inist
##ocking
##ects
##ke
##other
##son
only
catal
mass
play
leaders
refugees
bel
##con
##ord
advis
wall
while
maj
gives
wee
killed
pass
##he
##ale
policy
hur
some
any
major
kid
syrian
comey
##ause
trav
##ior
accus
speak
id
move
must
##uel
bud
##aring
interview
count
aid
announ
lat
##uch
##vo
##red
depart
star
lawmakers
way
##lin
##erk
cris
sn
because
den
##iff
found
##ution
administ
claims
travel
##aff
climate
germany
##ner
next
colle
pop
##ivers
order
conservative
response
##nc
##ms
reve
warns
ac
##istan
billion
immigration
crisis
room
hop
trade
##ling
##ony
commit
details
bomb
power
states
supporter
##ught
desp
administration
##way
coal
##ending
protest
discuss
##ced
tar
panel
general
takes
defense
years
urges
mur
shoot
candidate
far
ir
myan
beh
myanmar
gra
tim
##vers
tre
##ream
department
dan
jap
##hip
thin
protesters
japan
budget
ben
asks
##ustr
kur
publ
fire
got
##ize
##erkel
push
##ann
chair
ext
caught
opposition
britain
##iam
ser
##gr
officials
el
ted
##ision
prom
going
reform
sources
##down
##ected
cro
##iness
iss
##rant
peace
cop
case
keep
##unch
justice
lawy
mayor
secretary
fac
activ
till
real
change
fun
pal
##up
voters
##ises
##ages
democratic
##elly
plans
commun
fi
list
geor
money
austr
##ains
tex
week
kelly
##rican
hate
##ason
conc
releas
pick
rad
ties
perf
business
pu
##ince
eff
gir
##fl
step
##head
##rants
reporter
city
##ier
tillerson
##ison
never
john
near
france
##usive
memb
students
bur
hand
slam
boy
##ins
mel
ste
##ians
washing
flag
pat
paul
##ention
excl
washington
great
destroy
mess
appro
family
last
made
ali
intern
director
girl
er
##ese
##asts
##ocks
mig
##ult
brut
violence
arrested
control
cub
huge
happ
lives
##pit
##alia
dra
texas
000
drop
##co
still
class
econ
##osed
cops
key
truth
econom
hit
##usal
ang
shocking
attorn
##rong
rules
attorney
11
live
##ck
##ities
##ele
exec
##ender
##van
##ones
##ics
murder
isis
retur
federal
exclusive
fre
merkel
stand
##umb
nominee
ll
york
##ma
##ional
rev
##usted
image
citiz
office
serv
##te
##ban
##ited
##ures
conv
team
email
##azi
corrupt
investigation
ed
##erate
decl
shut
spok
resign
ru
alleg
bat
##ws
presidency
fly
home
som
vir
##imb
10
cal
##gn
college
give
##iving
##rug
public
glo
very
really
cond
boil
my
ina
job
leftist
ahead
##ites
laws
##ipl
rest
##iant
emails
##book
mac
force
##epend
independ
conservatives
jer
lit
pence
sent
##ips
seek
seeks
threatens
speaker
tv
##usalem
jerusalem
##ening
rej
story
hal
had
mom
elect
##erto
matter
lawyer
puerto
hist
son
##ang
there
flor
##ved
##uses
even
army
its
##nbc
##ving
##ares
##ida
##andal
assaul
voter
belie
stun
disp
florida
gay
use
another
##iplom
cut
view
##ots
good
diplom
lol
##self
##led
##yp
prof
said
legal
dnc
fra
yr
##bor
##ghan
muslims
decision
know
lie
dev
message
glob
ham
##less
##ourn
priv
allow
coalition
boiler
jail
rico
##pped
##ikes
doesn
fem
mid
##itch
##allen
##ikely
emp
##ka
sub
terrorist
terrorists
bad
##dog
##ait
##onn
start
release
ms
##go
told
##idence
##aster
crim
execut
amb
hom
##bia
##orts
confir
claim
children
shooting
fail
##ident
look
hun
night
reason
##ody
mark
facebook
times
##sh
spec
block
##ugur
##rope
humili
##back
##sec
senators
bombs
country
inaugur
journ
reb
boom
korean
refugee
funding
mccain
perfect
embar
question
latest
george
##pital
vene
##emp
##zuel
##ider
three
##ada
coll
sexual
venezuel
hold
mos
staff
beg
afghan
himself
amid
2016
kurd
fraud
journal
king
poss
sold
##ward
cover
scre
canc
rohing
europe
spokes
fr
red
##erence
challen
blasts
jobs
crow
##ury
been
catalan
ign
##ments
##ye
agree
voting
care
ear
sess
##liam
##ened
##osts
parliam
phili
away
rohingya
parliament
philipp
dam
##ss
##wer
##ats
##oub
leban
votes
behind
msnbc
aut
ken
abort
##ount
##ashes
destroys
cia
main
were
##sc
##ler
##ility
##ather
cam
cra
##amp
asked
##ified
adviser
target
nfl
##ging
forces
##ays
wins
phot
missile
lawmaker
kids
global
ara
busted
prosec
remo
full
net
##ix
##olog
sum
british
sar
zimb
##abwe
##ears
zimbabwe
lies
##rass
##erm
##ative
scandal
prison
statement
compan
macron
##hood
used
rule
mad
##izes
ruling
veter
best
##wood
ready
##igence
chic
embarrass
##hell
where
##ute
radical
independence
cho
##ago
brill
intell
fired
march
charges
slams
citizens
flynn
bush
fri
lin
other
sil
##ania
review
water
source
iraqi
holly
intelligence
div
egy
hyp
##ps
##ars
bank
brutal
cuba
egypt
aud
aide
civ
pen
sk
##iforn
called
images
californ
bombshell
brilliant
lond
wife
tries
trying
requ
add
chicago
london
cur
shot
leav
month
hollywood
fil
##gest
##augh
##zy
##icks
che
corruption
special
california
bal
wik
##ocr
repeal
agency
orders
bab
four
mor
too
despite
inauguration
##dle
##osing
laugh
defends
hurrican
##voy
men
repl
##ify
backs
##rench
days
civil
rub
##mit
turkish
sessions
wikile
##cept
leave
disg
kills
think
hypocr
##elle
launch
break
using
didn
danger
believe
12
likely
person
sing
yem
##pay
##ney
attemp
congressman
victims
members
internet
possible
crowd
hurricane
wikileaks
yemen
gre
hard
##ane
##isc
##erry
taxpay
violent
ck
cuts
##ices
sees
##stit
arrest
transg
action
ceo
hot
mod
##rough
##gan
ans
##ades
outra
##oked
##iversity
bas
fur
gl
##ness
##room
##eth
##ghazi
terrorism
##ought
benghazi
du
lying
nat
vet
##onia
shar
needs
reveal
cele
doc
krem
mal
pel
pun
youn
##pr
##ham
##ai
##ured
rape
ignor
##orse
saying
sean
final
protests
abortion
dist
making
##osi
canada
consider
service
venezuela
kremlin
pelosi
young
clear
pak
past
pull
##ph
##cement
leak
joe
build
reveals
female
prosecut
rubio
jr
sor
yet
##med
trip
##ador
##iver
blames
calling
##ized
evidence
admits
##gram
executive
kurdish
transgender
pakistan
ball
##ama
##ular
doj
working
workers
human
drug
long
oil
pot
##ta
##ised
throw
planned
debt
epic
##ween
between
celeb
wal
##uters
##ired
protect
lebanon
disgust
mu
##bin
##ards
##pping
mem
weap
sarah
ivan
life
stre
abs
offer
##ific
exposes
##ront
nyc
questions
angry
middle
cy
french
thug
##used
senior
michelle
braz
issues
drops
emer
much
rom
##sel
##tee
##ests
reuters
##reg
without
demands
warren
hope
activist
##ven
these
##urch
chec
program
##ste
ent
art
committee
history
assault
crimin
eth
xi
##ument
##mas
##urs
conway
proves
seen
aff
arg
comments
letter
biden
apolog
massive
ambass
ivanka
ris
##uit
##yl
groups
reports
announces
released
15
line
sick
term
##ming
##ancy
town
spain
come
elections
endorse
epa
christian
##anne
hits
nav
vows
wrong
##ries
##got
##eration
tro
anth
paris
emplo
audio
pra
##ints
turn
saf
find
contin
##of
##port
##ads
join
ukra
victory
rejects
street
gold
hell
oh
rant
##ually
##esome
thing
through
appo
talk
melania
mn
na
##iers
##arch
ital
pope
kellyanne
battle
100
gave
rips
##line
united
refuses
role
moore
finally
awesome
disgusting
five
sal
capital
##agon
barack
hilariously
hopes
erdog
ambassador
erdogan
east
pent
##umer
##par
##hor
thous
stup
close
##eller
##ift
warning
liberals
student
crooked
19
##eless
flash
##yster
running
catalonia
pentagon
stupid
cle
doub
mike
ran
same
##ode
threats
boyc
fut
##ird
gov
afr
sug
second
defend
comple
pressure
arms
matt
##ucker
spokesman
crazy
lim
tough
##eland
##olution
prov
cabin
uses
immigrant
regul
surpr
stunning
nato
thousands
hor
rich
tot
deep
ener
envoy
pred
teen
charl
strike
strikes
passes
freed
bath
daugh
fall
foll
ju
wr
wire
##ea
##uty
##bert
##inese
owner
13
##af
forced
chinese
##ager
whoa
carol
chris
mexican
mcconn
migrants
africa
cabinet
mcconnell
fo
##uary
##elc
stay
##stem
demand
system
carson
endors
millions
remar
2018
##reds
diplomat
future
path
rock
##ij
beat
##pper
##uments
200
parent
guy
irma
releases
convention
ukraine
##oks
##cil
##bing
##isl
##ising
least
offers
cred
racism
legisl
palin
palest
concern
outrage
bathroom
front
nig
pa
welc
##ium
trial
##icer
##usion
university
crack
##aps
return
somet
condem
weapons
horr
name
rio
tens
##igan
stat
spending
words
killing
finan
record
faces
arabia
mueller
cyber
troops
kim
nancy
wing
##gl
##enc
church
coop
organ
##ission
swed
approves
##stitution
low
loses
oops
##gs
##gin
##aw
##oric
today
train
union
getting
insane
private
dangerous
navy
##yn
##ults
hearing
spicer
contr
effort
aliens
economic
philippines
author
soros
criminal
bir
pict
##val
##ides
progress
super
strate
michigan
foundation
brazil
flashback
carolina
est
ok
##ination
illegals
christmas
relations
embass
alien
summit
absol
doll
dream
sund
wait
##nes
read
##eld
stage
##olf
dems
proble
little
friend
leaves
sunday
eas
fear
hat
outs
##ires
##eriff
sheriff
##ained
##vey
labor
comment
intel
love
better
photo
energy
palestin
something
puts
##pir
##cr
flint
council
hacking
denies
punish
##ral
##tim
##cent
##oul
##ential
crime
##umber
##ators
conference
compl
guns
insur
serious
anthem
embassy
sit
sell
##iot
troll
##thers
prod
blow
pled
##abe
refer
##clud
##berg
transition
brother
signs
profess
financ
cas
lou
west
##oon
##iday
anch
withd
blood
immigrants
schools
accuses
economy
replace
answer
diff
lar
lose
mother
opt
##wan
##que
then
obs
##abeth
##izabeth
deport
respons
elizabeth
virgin
lawsuit
boycott
esc
fans
fav
grow
hann
james
##mers
##ael
includ
african
unt
amaz
extrem
soldiers
follow
cre
hus
rid
taking
tucker
vp
##eat
##ences
##ided
strong
##oth
##ifa
breaks
around
##izing
roy
politics
victim
michael
fires
confirms
romney
dc
hands
ire
val
##uct
##ection
##ball
inj
##illy
proof
manager
##ruct
carl
access
deputy
percent
harass
suspected
israeli
camer
withdra
avo
hon
##iwan
##edly
##tern
##ills
spy
nothing
bring
scar
taiwan
india
corp
candidates
relig
treat
issue
##goti
niger
anchor
hour
oreg
picks
##uff
##ali
rece
react
##ember
weigh
militants
event
fighting
infl
prep
funds
moment
furious
oregon
cust
cast
might
mug
mocks
##pect
upd
book
conspir
speaks
kne
announcement
powerful
member
destroyed
viral
afghanistan
baltim
daughter
base
cen
foc
food
game
jun
lied
nbc
##bb
##ining
##gets
##endum
congressional
inform
challenge
check
referendum
avoid
dad
hall
ke
##cow
##band
things
megy
##aper
worst
##ization
exposed
firm
##nson
guil
admit
sanct
import
polls
explains
johnson
criticism
treas
chairman
allegations
market
moscow
prosecutor
megyn
bund
body
cent
father
jim
##cess
##ient
##ino
##omes
blame
alab
place
brief
doing
northern
thanks
missing
delay
australia
company
remarks
virginia
hannity
alabama
dav
less
names
tak
vac
##uk
##ze
##oms
##oman
##etn
##anda
##enda
agre
agenda
##ape
boost
backed
many
journalist
request
taxpayer
revealed
charlott
baltimore
##ois
##dd
##ny
tom
##iter
##iri
actually
illin
oper
charged
borders
hurt
accused
##cover
mugabe
illinois
14
cow
mis
mock
number
##atter
##ately
##idents
##aces
blackl
##icted
indones
hariri
urge
direct
thinks
veteran
italy
until
ireland
influ
treasury
fle
mic
##aire
##iet
tried
reilly
##oming
sto
steal
##utely
ask
dism
exper
actor
vietn
impe
patr
educ
choice
mattis
parenthood
30
hyster
mag
ria
since
well
##for
##han
##bel
##woman
##erally
videos
stree
##ches
##iven
shock
##ander
asia
unc
coming
##ika
temp
taxes
confed
become
controvers
accept
melt
returns
##encies
absolutely
sanctuary
50
ey
hid
loc
##my
##iar
reach
stab
bey
elector
##ensive
tech
allies
antifa
officer
max
elected
months
documents
pastor
ohio
financial
carlson
cost
eye
kick
sends
##ih
sets
waters
##mber
soon
everyone
graft
activists
communist
friday
early
kenya
address
green
update
bull
kerry
meets
ple
rnc
six
##eg
##ky
tour
##ille
turns
cross
steve
baby
bundy
confederate
aim
dir
die
self
##over
##ready
##thing
heart
##oph
already
board
##fta
firing
finds
supremac
promises
happened
embarrassing
nafta
husband
corpor
conspiracy
met
overs
stra
##ival
##ulian
agencies
worse
voted
indian
raise
heads
dat
fan
##eals
##lish
##gas
##ax
##iles
##utes
short
attend
grand
commission
moves
amend
recount
##ahu
christie
efforts
literally
celebr
impeach
dumb
port
##uation
##ias
##work
##anish
##itor
try
##acher
##asc
##roit
##aming
##imony
isn
search
ends
prince
blacks
iranian
winning
detroit
supporting
cities
explain
migrant
attempt
paid
bul
gas
lady
##oter
##och
##sen
##kk
##enn
took
##itt
##icul
dept
negoti
succ
capt
comed
resc
orland
libya
guess
highl
points
testimony
apart
fix
humiliates
veterans
argent
professor
eyes
orlando
25
due
nra
pow
rene
send
sav
##pan
##ords
##icts
##etic
##esty
god
abuse
##ession
comes
scott
scalia
parties
##ruction
appeals
save
marr
airport
prev
propos
socialist
incre
billionaire
steps
companies
foot
era
golf
hos
led
lock
sat
##ding
##20
##atar
trad
wearing
ground
mov
appear
looks
schumer
judic
raid
frank
responds
jean
popular
committed
declares
potential
throws
freedom
palestinian
vietnam
meltdown
iow
lyn
non
nations
rating
##non
third
constitution
sea
unre
hispan
prime
usa
mob
finance
accident
telling
russians
confl
guest
counsel
charge
austral
concer
girls
half
displ
endorsement
guilty
electoral
maxine
fal
figh
land
lost
tues
##ray
##oser
shuts
##ational
scream
##ensh
##erty
biggest
feel
suspect
concerned
picture
favor
data
jeanine
tuesday
gree
giving
ips
qatar
##sy
##sa
##acts
cha
prove
repres
hear
blast
plot
##ibility
done
hero
haw
pric
prim
expects
talking
respond
shooter
hacked
nomination
broad
desperate
irish
promot
community
murdered
perfectly
journalists
##glades
harassment
lynch
ipsos
easter
kar
lif
ment
nazi
pos
vice
##uce
##rict
##dy
##ville
##ject
##istic
sue
unp
agents
enter
bannon
quit
counter
visa
changes
targets
facts
brutally
cheer
corporate
movie
iowa
ce
fair
loss
pact
##na
##inted
##any
##iting
##ota
suic
##veil
exc
meas
##ension
flood
banglades
arrests
testify
majority
kurds
screensh
thugs
condemns
center
focus
education
bangladesh
mist
##hel
##ble
##bur
thought
##istry
lev
spanish
unveil
enfor
disaster
scam
webs
interf
jeff
anyone
hung
##stein
surprise
ridicul
screenshots
18
creat
pet
sol
##dling
##gency
##cing
##bt
sever
unl
unhing
ally
word
assass
held
harvey
inside
armed
surv
hammers
jailed
##yees
philippine
veto
ethics
risk
employees
pathetic
outside
central
unhinged
coup
jes
mart
pain
row
van
went
##mo
##matter
##dan
##nesty
##gate
##wal
##ared
##aced
##rod
##ross
##amed
conn
lav
overh
cry
enough
##ably
expert
flo
attacked
parents
opens
worker
amnesty
smack
mosque
endorses
problem
hysterical
##ihad
australian
represent
ale
cou
cash
kush
kkk
roll
vs
##oen
##rich
##iest
##ker
##ange
storm
chuck
unf
poland
##ifying
teacher
minor
appeal
##ounded
2017
wanted
poor
propag
leaked
birth
dirty
amendment
success
ridiculous
overhaul
kushner
dom
ho
mi
others
pret
##sp
##wers
##ona
##arre
##itive
##icle
form
neigh
asyl
##iance
abe
arr
disres
wein
regime
fundra
seth
players
georg
linked
entire
tensions
blacklives
highlights
asylum
ug
wed
##pts
once
##iage
process
seat
clar
asking
watchdog
results
residents
scot
ministry
phone
protester
feds
broke
hitler
humiliated
netany
hours
netanyahu
dict
fel
hund
punch
##oo
##een
##lor
##hen
##het
##bod
##ink
##ined
sudan
##ended
cauc
##aged
ads
scr
##asty
##ishes
pray
##gests
militant
assad
explos
advisor
countries
reforms
resigns
##onna
homeland
cambod
morning
distur
suggests
crackdown
important
concerns
blacklivesmatter
bene
jihad
las
mc
##omp
##isan
##illing
##ley
separ
abc
officers
lobb
christians
leadership
allowed
rebels
remove
agrees
unreal
suicide
propaganda
dies
gang
liar
pac
pack
vol
zeal
thurs
lew
##stream
##agan
backf
supports
records
##qual
delivers
deliver
study
nyt
aides
international
confirm
emergency
credit
insurance
amazing
influence
streets
straight
marriage
thursday
bag
dro
jack
kas
position
ske
##bl
##mps
##the
ago
agent
detained
collusion
mainstream
strategy
information
priceless
caucus
benef
audi
doss
hen
jones
lg
sale
##ll
those
reid
stance
bea
sept
obst
##iev
##ounts
##ounds
eng
price
manaf
libyan
account
threatened
ill
maher
bigot
region
reporters
info
point
small
jeb
starts
alleged
historic
launches
praises
totally
outrageous
dollars
religious
flee
local
hospital
lgbt
manafort
ging
posts
ten
##ril
##esville
##ark
##arian
trash
reagan
anal
##aine
unity
commer
teach
introd
defeat
threaten
visits
buy
ident
eric
european
sharp
safe
diplomatic
dismiss
conflict
primary
georgia
disturbing
zealand
dossier
17
60
biz
bans
hosts
nar
pur
##lines
##ont
##ically
trust
strug
##odes
donors
##ansas
defending
phony
reportedly
april
##uchin
stein
draft
dispute
failed
taxpayers
mnuchin
complain
charlottesville
experts
hispanic
disrespect
hundreds
bizarre
strugg
21
boss
jers
late
mot
oct
rig
rush
rise
tort
##racy
##gus
##wa
##ano
##rets
##eline
dece
##ulation
spre
crash
env
banned
plane
carry
##ogue
deleg
cites
famil
massac
snl
citizen
sentence
crimes
begin
silent
considering
welcome
reaction
gingrich
jersey
both
bias
losing
neo
numb
ol
ped
tan
wild
zika
##ki
##ored
##edi
truck
forward
##terte
##ustry
exit
und
##rates
donations
democracy
joins
leads
interest
##ningsen
industry
remember
##riot
funded
policies
idea
burn
somali
friends
hotel
duterte
continue
continues
relationship
false
henningsen
families
16
cree
dall
fell
living
##dow
##hs
##ading
chance
spot
door
attacking
colom
colbert
##ogn
charity
undercover
raises
relief
weeks
pushes
hunt
cancels
employ
complet
produc
responsible
weighs
jimmy
dallas
fuel
given
gonna
lon
nsa
yell
##gers
##body
##att
##inger
todd
##illed
shreds
leaks
offensive
hous
cause
enc
ariz
expected
mind
planning
actress
threatening
invol
guard
immedi
drive
suspends
lawyers
files
single
building
accidentally
chaos
audience
numbers
cath
dial
gut
jan
ri
ut
##ux
##ued
##rim
##rum
##zb
##qa
##ances
##itb
##itz
traff
inst
##ushing
##ived
clash
exact
unders
crush
aren
coast
diss
brings
joke
cann
robert
newsp
##iction
grad
quits
monday
probes
remain
vegas
feed
criticizes
idiot
movement
peaceful
total
legislation
riots
swedish
david
massacre
arizona
bow
dig
nails
nasty
rand
tun
wit
##mare
##za
##estern
##onment
toward
trig
trib
troub
##isy
##using
##rov
station
whining
##ironment
blocks
##ablish
joy
killer
quick
harry
helped
snow
across
nightmare
photos
network
hypocrisy
document
malays
##selves
organiz
establish
escal
taken
kasich
environment
fer
fit
fears
gar
gone
hers
ic
mult
ram
rate
tant
tear
##mon
##mal
##off
##iti
##ety
shame
alar
weak
leading
meddling
road
seeking
leftists
settle
server
funeral
radio
nearly
standing
sales
sweden
injured
treatment
patrick
eastern
karma
creep
longer
22
dod
dron
fails
mails
pie
rice
##ets
##ience
##ula
##ude
scor
wealth
expand
protection
campus
##icking
peru
award
shoots
deadly
reality
draws
classified
resignation
viewers
looking
cancel
hypocrite
louis
castro
controversial
website
couple
ber
bail
card
dail
mail
mitch
side
squ
wisc
##men
##rent
##den
##nel
##ae
##bus
##inds
##once
##else
stock
chelse
share
##estic
lab
mean
##iful
bruss
moving
showing
deals
respect
recogn
##onsin
islamist
helping
rapist
handed
angel
##cker
challenges
based
ignores
memo
hopeful
july
cooperation
beyonce
newspaper
daily
wisconsin
chelsea
lot
nuts
tears
yes
##app
##imp
##iders
##rect
##aca
##rol
store
chem
seven
##ulf
##rap
sues
spying
blaming
breitb
disab
resol
uph
medical
##atory
firms
marine
militia
evac
##ogle
##ertain
surve
sla
opening
hateful
cuban
allowing
blocked
earth
leaving
glor
memor
##stead
situation
pledges
including
proposal
cathol
brussels
breitbart
24
cbs
daca
lands
mand
va
western
##mel
##ried
##tain
##gth
tower
instead
##ural
##utiful
heck
spl
##ume
##uma
bills
prior
boo
flights
##oke
rob
backing
turned
appears
euro
marco
deplor
2015
feb
holds
devast
hammer
soldier
silence
sharia
pulls
##ylvan
safety
appoint
knew
indonesia
kicked
several
lavrov
domestic
beautiful
completely
dialogue
establishment
tantrum
aims
din
gow
mach
rhet
tpp
tape
wid
wage
witch
wounded
##ring
##pl
##ners
true
##rew
whist
shi
newt
##enders
##ibly
##nsylvan
looms
confron
nominate
everything
diplomats
cancer
arab
pennsylvan
attempts
clean
pledge
cases
options
nigeria
neighbor
gowdy
rhetoric
pennsylvania
actions
berkel
gi
hond
ky
light
ros
sle
tor
zuma
##fe
##fire
##qqa
##iny
##inc
##ana
##atives
##itions
##asons
##rog
google
##ression
boe
minutes
compares
epis
shouldn
descr
##ollah
legacy
raqqa
needed
paying
proposes
graham
stephen
patriot
restrict
halt
coverage
agreement
career
personal
suggest
rioters
differ
##ructure
honor
custom
supremacist
##uliani
enforcement
commerce
colombia
witness
whistle
berkeley
giuliani
hondur
bos
cu
costs
dhs
eight
gors
ka
mull
rick
ver
##aed
##erve
trey
reasons
##ented
##olds
which
##aked
chant
beating
##ounder
discl
##eme
expect
flight
commander
cold
among
southern
speed
couldn
regional
design
themselves
runs
critical
denoun
irs
behav
promise
communic
devel
maddow
answers
appointed
waiting
trolls
vacation
increase
december
housing
herself
episode
gorsuch
cking
cult
der
dress
fa
founder
gm
huck
kir
mitt
pip
tack
tight
##uro
##uction
##ric
##so
##yers
##ipp
##isters
##idge
##iling
reop
##illance
##let
stamp
##irc
within
project
beij
alert
##abee
disrupt
hamp
refuse
park
opposes
decide
awk
knows
swiss
sexist
retire
discrim
critics
incred
grab
funny
reject
dump
cooper
strateg
argentina
ratings
hawai
scotus
cambodia
fellow
exactly
cannot
trigger
chemical
surveillance
huckabee
beijing
esp
gender
kansas
lack
nc
pap
song
##eum
##form
##poen
##yle
##wed
##inate
trud
trumpcare
thro
##lement
##omo
shir
cong
##andon
hey
##iebus
enem
disapp
brib
##ipt
ups
warned
warming
priebus
2020
##iots
becomes
speaking
oppon
advice
susan
belg
austria
austrian
happen
shutdown
haley
subpoen
maine
removed
##eau
contract
easy
following
coward
comedian
judicial
unlikely
glorious
cuomo
kaep
fant
lun
naz
vill
wre
##ract
##eas
##icious
thai
inn
##ether
##vert
congo
##unk
##unity
lee
##allies
unbel
alt
plant
william
##iple
having
joint
exposing
racial
confident
putting
assange
politico
##ropri
discover
owned
brag
jew
facing
perform
effect
happens
rebu
begins
links
brilliantly
babies
laughing
limit
stealing
torture
immediately
underst
drone
memorial
dinner
develop
trudeau
unbeliev
40
fd
fat
solution
ton
tests
wake
wood
##iro
##iary
##wor
toget
##iser
##iled
##asion
online
stran
whose
asse
blows
##ifies
worth
works
wasn
medica
banks
quake
##loy
##fully
few
brags
proposed
keeps
businesses
approval
happy
failure
targeted
curb
apologizes
welcomes
dreamers
camera
display
floor
disabled
awkward
together
medicaid
bon
dark
hang
nine
ousted
riot
site
##ucc
##ez
##gar
##aur
##by
style
whines
##adian
##etta
ship
hezb
blocking
##apse
wars
dog
##athy
rachel
evil
remains
mission
missiles
regrets
owners
surr
player
burns
restaur
claiming
collapse
apology
complete
status
replacement
obsess
measures
hezbollah
500
jay
mas
osc
page
sam
sant
##bat
##bar
##bre
toll
stron
##urday
whether
##akene
shout
const
space
##iana
##artisan
worried
refused
##ucks
course
congresswoman
acting
accord
racists
guests
worked
airlines
known
impl
##quir
swing
driving
openly
brown
brain
property
playing
kidding
protesting
extra
field
##insula
independent
divis
peninsula
##nesday
create
saturday
fighters
interference
martin
wednesday
jackson
sharpton
rigged
##guson
ferguson
catholic
whistlebl
behavior
kirk
pipeline
kaepern
nazis
##akenews
23
45
fig
fine
hating
kaine
lind
od
rallies
sides
welf
##rast
##eated
##to
track
trail
revers
##amucc
##ceed
obl
sure
spent
abandon
demon
cap
##apore
disgr
warrant
doz
##oking
canadian
consumer
color
judges
impact
register
veh
hacks
infrast
brave
raped
passen
someone
announce
population
draw
somalia
lebanese
kenyan
citizenship
singapore
ballistic
kimmel
selling
withdrawal
scaramucc
juncker
briefing
hiding
unveils
hungary
surviv
jesus
weinstein
snowfl
innoc
kaepernick
welfare
infrastructure
scaramucci
27
400
bip
bash
circ
ice
jord
mocking
mention
ross
ty
tx
ul
wast
##dad
##nic
##lah
##cis
##bab
tow
##icit
theory
dear
anc
##oma
stick
stren
stands
club
sports
clintons
donor
disag
scal
wear
express
expose
interior
quot
ending
recru
illegally
underm
delet
legend
correct
investigate
investigating
explode
explodes
signals
deaths
accusations
bombing
discussed
listen
migration
editor
staffer
writer
oklah
shocked
tempor
impeachment
bully
promote
lobby
backfires
environmental
hawaii
bipartisan
jordan
strength
oklahoma
cens
cze
gift
gulf
pig
pension
qaed
rather
##nd
##bed
##idel
##uster
chile
anderson
##sey
##ulate
suff
blo
alive
##aging
billions
##ished
apple
detains
harv
postp
francis
flags
sentences
privile
rebel
kurdistan
damage
prisoners
prosecutors
emerges
article
affair
limits
horrific
seriously
growth
magaz
excuse
level
assassination
ugly
pacific
dismisses
split
describ
congrat
czech
qaeda
bod
paper
zone
##oy
##tap
##ero
##enced
##oud
##oura
stol
##ched
##uted
##very
island
##iring
closer
##raft
##vember
bridge
whoop
resolution
scient
doctor
courts
november
music
##itional
accounts
operation
##here
winner
##aza
decades
##riend
hostage
drills
payments
propose
##board
ordered
serve
approve
believes
diplomacy
submar
holding
screening
spokeswoman
maduro
egyptian
further
drugs
regulations
beaten
organization
okay
dollar
problems
deported
captures
crybab
multiple
creepy
wealthy
williams
restaurant
kirkuk
bol
diversity
fasc
iron
kiss
lor
loser
mouth
male
myster
ron
vat
vow
##ober
##rid
##east
##friend
##hdad
##craft
##icop
deter
anger
stir
##ivals
shares
neil
abd
##str
blue
also
willing
##apol
lawless
resume
boat
minim
mooch
carri
accomp
helicop
##ault
impro
swamp
investment
presses
retali
hackers
suspects
deadline
socialism
incident
plays
latino
keeping
patrol
convicted
divided
clears
ballot
falls
statue
largest
indonesian
bullsh
supremacists
rescue
powers
prevent
football
cease
baghdad
september
october
tonight
vatican
bald
born
came
date
fres
gains
jill
jake
jong
julian
kat
kicks
ml
nh
occ
sim
tick
##ob
##ections
##time
##hren
##aio
##cks
##veland
##inated
##atic
reince
##utions
##ivid
##raph
spons
lahren
resist
##ishing
tapper
considers
##rupts
assist
visas
delus
delays
##ucky
famous
kidna
bombers
drag
revolution
allegedly
seekers
started
##shire
film
bashing
offered
sickening
italian
cleveland
predator
brotherhood
deportation
amazon
beyond
powell
fighter
broadc
mistake
separat
teachers
encoura
malaysia
confronts
neighborhood
sleep
gmt
hampshire
retirement
magazine
loretta
cer
coul
dut
equ
fast
git
hong
hires
kong
kind
lower
mer
pushing
tied
tele
taps
uran
vile
##lers
##lands
##ga
##ii
##win
##ering
##inent
##aration
##ilt
##ouse
thail
inquir
##ashing
shift
seal
##under
aggress
##elled
brand
whole
area
imag
common
colin
queen
confidence
detention
secretly
soft
emot
becoming
insp
oppose
advoc
drill
smith
jets
holy
later
grave
japanese
declaration
privacy
empty
homes
outraged
walk
argument
doubles
provide
wireta
tomi
patriots
temper
pleads
oversight
dictator
slavery
understand
unbelievable
lindsey
harvard
baldwin
coulter
gitmo
uranium
thailand
28
35
cart
finger
games
gaza
mr
pers
pod
rival
wi
ww
yikes
zor
zero
##aa
##where
##ased
##asio
##illion
##ently
deir
chilling
##thy
##see
asian
spd
means
##umn
##rated
worry
disney
princ
##okes
##athing
turning
liber
actual
parts
lefty
reminds
implement
slow
related
poison
jews
##kets
anything
treason
services
stunned
##shed
venezuelan
summ
laughs
artist
risks
goldman
199
authorities
large
religion
preparing
baseball
directly
celebrate
judiciary
greece
minority
explosion
package
organizer
piece
##ropriate
obsessed
bloom
stolen
submarine
##apolit
delusional
cerem
70
age
bik
died
hired
lad
misc
nice
napolit
piss
prem
purs
rip
sac
sack
ws
##ua
##ster
##lib
##ko
##kes
##wide
##alty
##icip
##outs
rein
##aching
##road
##akh
##cepts
suit
spar
spend
exch
unle
uncover
ens
arrog
##antly
##astic
refusing
museum
alliance
minnes
liberty
maria
carter
ifax
invited
parade
indict
scheme
county
detail
insul
aircraft
embr
publishes
handle
reven
declines
conduct
views
staffers
embarrasses
model
tension
progressive
casual
kneel
june
comedy
mental
positive
pretty
fundraiser
louisiana
strategist
dozens
privilege
congratul
crybaby
ceasefire
fresh
inquiry
napolitano
wsj
minnesota
aug
corn
dak
fest
grop
khan
ouch
porn
psy
rou
sin
sending
##pd
##iate
##bie
##bian
##keep
##vada
##xic
toxic
##ital
trillion
##reach
##acing
##lets
stops
whites
##osure
shad
nevada
##tha
clock
clashes
lear
subs
exam
unit
##opoul
alm
##ables
result
science
scathing
##ansion
prize
allows
ministers
moon
##rump
column
contest
invites
invasion
assoc
politician
reported
beck
sexually
huma
feud
suspended
latin
ways
snap
else
concert
nears
assaulted
removal
madrid
link
civilians
pakistani
ethnic
praise
keith
charlotte
controversy
appearance
ceiling
birthday
##quality
skept
employee
ripped
bowl
devastating
boeing
communications
faith
jewish
whistleblower
innocent
minimum
emotional
bloomberg
26
az
ble
bio
bait
ded
erupts
fool
fisc
gab
jared
lame
os
pard
rare
slo
simp
ter
##uf
##ties
##lan
##how
##be
toler
##icals
##ilton
stall
promp
seg
##anders
repeated
lets
able
capit
coff
resear
pract
proud
norway
showed
##issions
appar
loy
contacts
sched
mont
probably
wouldn
insults
knock
retw
vets
smug
income
advisers
accuser
idlib
##redd
denied
shootings
slammed
edt
devos
targeting
sorry
appoints
regulation
difference
received
delayed
franken
unpre
##burg
jesse
alec
prayer
obstruction
analy
introduce
purge
struggles
pedoph
trouble
deplorable
bodies
carrier
helicopter
uncovered
dakota
capitol
research
dines
eat
hij
ku
kathy
les
limb
lux
mol
pir
rud
rino
sad
tap
uae
wolf
##gling
##ho
##har
##ket
##well
##itation
trashes
##ilat
##asing
##tsy
forget
champ
##verty
atl
##unt
cluel
closed
lect
spir
exist
uncon
agit
cruc
caused
##iban
##umm
coord
priest
users
temer
manuf
qual
quiet
##cla
meetings
phil
phys
southeast
##maker
harm
shots
sworn
matthe
tweeting
panic
poverty
holder
deny
colleges
danish
ell
ignore
damasc
considered
doubt
double
demanding
responsibility
prepare
davis
mocked
uncertain
screams
greek
created
lewis
benefits
introduc
motor
traffic
tunis
recognize
resolve
evacu
restrictions
customers
boston
cowardly
ult
ceremony
almost
terms
clueless
manufact
damascus
90
ath
bitter
bashes
dying
fcc
fights
filled
g20
hike
koch
los
lines
lang
nun
named
ring
rage
rivals
sou
sister
vul
##era
##erly
##anam
##ature
ine
##acle
##ases
##asse
##rote
##ament
anarch
sharing
conse
bee
heav
lago
along
presidents
##elling
crashes
bye
hissy
arch
adop
worries
##ously
##ipe
reset
##antanam
weird
youth
##inees
flat
areas
tea
text
##aves
manip
terrifying
##issipp
taliban
accuse
guantanam
comprom
millenn
##gery
politicians
bigger
knife
mississipp
##quences
##nedy
rapper
nominees
drunk
citing
payment
prepar
smear
incomp
##iffin
##ways
##cedented
behar
ambush
kennedy
ignoring
wiretap
horrible
palestinians
growing
honest
kept
operations
##iety
crossing
dumbest
argentine
proposals
favorite
mentally
measure
arrives
weiner
delegates
labour
different
discrimination
disappo
divisive
dutch
##opoulos
fiscal
unprecedented
atlant
souza
consequences
guantanamo
millennial
mississippi
65
ak
bah
ditch
fior
fakenews
ga
gate
gag
hide
mall
mine
round
rises
ss
via
vicious
##ov
##do
##fer
##hillary
##kn
##vin
##wl
##wart
##erates
##ories
##aries
ing
forcing
stress
##ura
##oween
##ado
##adem
##osa
proj
betsy
spin
abroad
univ
blm
blind
##udis
lapt
launder
houth
watching
##ague
outreach
warn
secure
hair
jokes
medic
##ption
banking
minute
partners
terrible
appl
saudis
detain
reck
debates
##onduct
wonder
bomber
opport
decides
advances
sweep
tweeted
survey
annivers
buying
raping
interviews
accepts
academ
extr
extends
weekend
handling
girlfriend
freak
spoke
batt
calm
inaugural
pulled
potus
entry
range
jump
writes
systems
option
values
cameroon
prepares
custody
halloween
operative
stole
stability
aimed
representative
spread
january
quickly
alarm
incredible
vehicle
accomplish
misconduct
dinesh
fiorina
anniversary
bust
cnbc
ease
giant
hill
hire
jury
lic
nail
ow
oath
oval
perry
tus
tact
tired
wil
##uing
##uana
##mits
##fort
##ne
##light
##bucks
##armed
touch
##imid
##atemal
neg
##rain
##vement
abed
##ston
uns
unarmed
adds
donn
brought
scrap
boys
normal
intimid
hasn
partner
terrified
marij
guatemal
deploy
phase
##aches
thank
changing
destroying
raised
raising
transport
surge
pays
nypd
anyway
thinking
freaks
publicly
inapp
halts
sky
current
hypocritic
modi
ignorant
apologize
##stitutional
pictures
##nessee
observ
obsession
include
withdraws
treaty
receives
techn
commissioner
petition
tennessee
angela
mandate
widow
honduran
espn
shirt
fantas
##works
figure
waste
scalise
temporary
whoopi
fascist
arrogant
festival
shadow
repeatedly
analyst
rudy
langu
incompet
laundering
tusk
marijuana
29
300
bit
cell
eve
fare
gore
grants
jet
kent
lift
oly
pin
pund
sab
size
wrote
##more
##don
##ports
##gen
##awn
##ba
##war
##wait
##erial
##erately
##inary
##inder
##ani
##itarian
trick
##ila
forg
stone
##utral
shop
isol
convoy
conyers
neutral
cloon
sued
spect
spied
spray
une
##ouri
advert
scare
box
nobody
deficit
commie
moham
##erves
carly
content
contact
officially
monitor
events
compet
chiefs
reporting
missouri
retired
##uzz
corker
ruled
slaps
investigated
higher
feat
feels
inciting
discusses
murders
burned
approved
sentenced
assaults
hamas
hamilton
feminist
humiliating
session
damn
embarrassed
reviews
celebrates
weapon
entit
affect
anthony
finding
surprising
predicts
condemn
training
birther
easily
punishment
withdraw
shocker
raids
minorities
hole
clarke
benefit
upholds
mulls
enemy
upset
assemb
occup
cartoon
summons
insulting
kuwait
luxury
reckless
extrad
inappropriate
kentucky
olymp
clooney
cks
cough
jar
lay
mix
rails
sons
tie
##ump
##uels
##mart
##right
##trump
##giving
##cer
##ius
##iel
##iation
##bon
##ken
##erc
##eres
##anged
##onds
##enly
##ara
trait
##ids
##icates
##tery
shel
andre
seats
##unte
except
abb
##ube
blamed
##uds
polish
watters
##ifer
places
donation
outc
##ems
##ansing
nord
##agement
partial
partisan
moved
loose
quar
campaigns
milwa
contenders
##rett
##orship
opin
phoen
recover
clapper
##quake
switch
helps
changed
schooled
driver
slain
slash
highly
criticizing
##otten
betray
passed
announced
snip
communities
stuns
confirmed
begs
damning
globalist
choose
require
moderate
glenn
ignored
district
protecting
emerge
criminals
termin
endorsing
remark
2008
statues
authority
extremely
admitted
thanksgiving
##ukee
entering
vetoes
volunte
dropped
fleeing
involved
utah
garland
settlement
earthquake
landsl
machine
opponents
belgian
development
snowflake
telev
inspired
pissed
psych
subsid
baiting
##ilateral
laptop
abedin
donnell
language
milwaukee
phoenix
4th
75
core
gran
germ
nik
pit
sis
sach
sounds
wide
##po
##kers
##ered
##ores
##isions
##roc
fort
##omy
##oster
islands
proving
proceed
clown
##ully
##raid
lemon
sudd
spring
unions
blog
alone
combat
plat
##agwa
##apo
scen
##mann
symp
grass
griffin
killings
##iously
markets
cars
confused
guards
admin
##gering
voice
##loads
insult
factory
awards
advance
violations
match
transcr
barn
infur
society
nationalist
brothers
brawl
poised
setback
smoking
##eryl
letting
wallace
starbucks
extend
crown
revamp
declare
##angagwa
questioned
collaps
screw
prisoner
chooses
walking
walmart
checks
afford
mnangagwa
doubts
provoc
regulator
mexicans
crew
miser
smacks
explosive
mcm
confirmation
narrow
crushes
booed
tackle
bribery
woodshed
towards
wiretapping
sacr
congratulates
columnist
pardon
sisi
sachs
2nd
athe
code
dy
duck
eld
fals
gary
gain
hates
jails
mir
mun
nj
pants
ren
rum
rans
sites
wa
##uter
##uise
##mouth
##ris
##rous
##paio
##house
##cts
##joy
##icles
ford
##aker
##akers
chain
shake
shocks
andrew
behead
##ung
##uls
suu
spr
##ighter
abo
##stone
altern
houston
cries
justices
arpaio
##rative
##antage
##enses
books
flip
backl
nov
loan
seeing
active
carbon
monument
monuments
comply
gunman
politically
vision
voices
2012
destruction
surgery
signal
criticize
bump
stars
commitment
promised
radicals
##ultz
standoff
##umbles
condition
restore
gays
homeless
removes
singer
distr
brazile
golden
cleansing
ranch
tougher
daughters
juan
endorsed
legislative
##awi
scared
receive
cowards
magn
streep
hidden
bullied
celebrity
footage
felon
carrying
oliver
dodd
scorches
hammered
kyi
culture
bragging
rebuke
stronger
obliter
passenger
survivor
affairs
bridgegate
irony
wwii
bikers
casualties
groping
limbaugh
unconstitutional
vulgar
bahrain
germans
ransom
31
700
99
av
bay
bran
cbo
casts
certain
diam
dup
fill
foster
huff
mate
mary
mide
mika
meryl
nz
pn
pil
piz
rout
rif
rakh
tone
vers
vandal
zucker
##ror
##iates
##alk
##ilities
##acp
##owing
##ett
##etz
cher
chaff
##ively
##iable
##resp
beach
seiz
seize
afraid
suing
spo
examp
mega
##abul
##ability
disar
brian
pride
expansion
roger
roads
##eck
miners
defy
defect
apprent
interests
invitation
indicted
individ
schultz
wind
comparing
computer
immunity
recon
recall
##roph
emir
remind
advantage
regist
hacker
nominates
fein
busts
criticized
smart
##lins
snub
acts
##onym
extension
##ground
steel
classless
revised
ruined
##borough
executives
hunger
blockade
screwed
fright
abortions
summer
curbs
bali
hypocrites
basket
leaker
humanitarian
walks
naacp
boycot
dreamer
loud
extremists
extremism
scarborough
nigerian
admitting
saved
tradition
screaming
smackdown
felony
analys
trafficking
priority
honduras
fda
oscar
disgrace
disagree
scientists
katie
ticket
exchange
unleashes
pirro
ultimate
prepared
hypocritical
landslide
platform
backlash
mideast
rakhine
chaffetz
ax
bold
each
file
fredd
gig
gene
hiring
mut
malia
nut
oust
perman
pitch
purch
rain
rab
sina
tel
tch
ven
wass
##fk
##person
##gue
##hn
##col
##ipping
##va
##xon
##erie
though
##rees
##amb
anad
##omm
stad
##olu
##adi
##che
##rest
shif
shames
convers
##through
beats
##esta
closing
aside
repeat
exxon
##eek
unh
unmas
##uded
label
twist
crying
sens
attention
resort
scary
haven
doct
fled
imam
teens
nobel
showdown
loot
loves
hostile
transpar
slap
panama
investigators
posted
soccer
sett
freeze
accusation
desperately
farm
graph
treated
issued
perfor
pupp
stephan
revol
profile
starting
questioning
begging
spokesperson
divor
skin
skip
requests
additional
breakthrough
pulling
stupidity
province
bathrooms
contrib
punished
optim
escap
creation
valerie
##ukes
renew
constitutional
alex
unfit
fundraising
scotland
cambodian
volc
bigoted
narrative
complaint
biased
yells
rosie
denounces
opponent
belgium
subpoena
demonst
expresses
strengthen
mystery
retaliation
podesta
sparks
indictment
coffee
hijack
crucial
matthews
nunes
negative
jarrett
abbas
nikki
blogger
diamond
apprentice
freddie
sinai
wasserman
anadolu
stadium
33
bot
bite
bbc
ding
dia
et
fault
fully
hub
jerry
jfk
lt
li
len
lashes
meth
poc
poses
river
sun
tas
tab
xin
##uits
##fall
##yad
##gu
##gent
##cked
##iop
##eric
##esh
##ank
##icult
##ils
truly
trumps
reward
##uset
##aska
forum
forgot
##leans
stocks
stuff
##oler
##otic
##urd
##owled
##oca
##une
closes
obamas
spur
abrupt
unac
unite
unless
blasio
always
overt
twice
demol
notice
breach
ark
##umes
cohn
resh
scale
secession
seconds
wash
rober
symb
gray
defying
##ruary
collins
interv
loving
indo
evisc
phar
##achuset
chances
discred
ramp
rajoy
slave
pregn
##mark
mostly
built
massachuset
elite
prominent
peacekeep
nevertrump
flying
electron
itself
disputed
claimed
embargo
frust
craz
audit
replacing
membership
greens
modern
malta
throwing
absurd
goldberg
ranks
fallon
absolute
difficult
favors
##ructive
bringing
customs
briefings
lesson
agreed
##ophob
indiana
impeached
hearings
plotting
lifts
painting
connect
neighb
arrive
seattle
dictators
punched
spotlight
involvement
crushed
malaysian
february
enemies
village
rebuild
oscars
construction
colorado
censorship
postpones
determ
similar
resistance
liberia
laden
premier
pursue
ensure
revenge
biof
spirit
quietly
introduces
adopt
resettle
opportunity
pundit
assembly
extradition
quarter
maryland
zuckerberg
doctors
roberts
symbol
massachusetts
band
bible
ders
eg
elim
eating
equality
fills
gap
grant
icon
jon
kos
ly
lut
mps
nba
rude
sore
sought
torn
yout
##uer
##ev
##dict
##tv
##hold
##hua
##br
##bow
##vation
##11
##xual
##orum
##anim
##alf
##arily
##arthy
##itr
traged
##iding
##ication
initi
reass
##acular
##tered
anonym
##igin
shr
sem
##andan
##anding
##ppo
clos
##raham
heat
##uble
univers
unanim
blister
alaska
overr
meyers
watched
causes
##oding
adam
billboard
donna
##apt
disast
statements
suppl
allen
banning
##ryption
que
confront
schiff
schae
guys
militias
opio
probing
compar
became
harsh
decries
decided
islamists
polling
channel
wanting
barron
barred
panther
investigator
genoc
explained
highest
mccarthy
everyday
everywhere
advisory
##heed
somebody
ideas
denial
discussion
farage
behalf
activity
communism
businessman
burning
greatest
classic
declared
conditions
possibility
covering
silk
brutality
babis
moral
ceos
vetting
shared
mali
##aires
ballots
celebrat
hater
bloody
followers
##uffle
stopped
dismant
lockheed
trading
blasted
hawk
solid
martial
aleppo
lobbying
dropping
bigotry
disrespecting
struggle
spreading
##itzer
idiotic
escalation
iceland
canceled
torches
verdict
reopens
incredibly
papers
wrecked
discovered
strongh
odds
reverse
disgraced
kidnapped
princip
simple
##howitz
schedul
retweets
ellen
disappointed
spectacular
entitled
opinion
television
above
xinhua
unaccept
neighbors
dershowitz
youtube
tragedy
blistering
schaeuble
600
80
bond
dick
erupt
ft
fate
fab
fish
fug
gather
hy
hug
jab
ko
lights
likes
lays
native
qb
rent
rail
rag
rocks
sain
ts
wish
yah
##oop
##ovo
##ek
##ients
##bbs
##born
##ware
##oring
##anian
##antha
##atch
##arters
touts
##itimate
trashing
##isers
trucks
##rogate
##eover
##illa
##leading
stream
##ader
##etown
##osen
chants
shaming
pros
proved
sector
object
##rage
league
goals
laura
##opular
meant
crony
cruise
ite
attending
cool
coach
wors
##ements
haiti
prices
bob
bogus
boko
##mance
user
tapped
orleans
roast
rogue
intoler
noah
##active
campuses
consulate
apply
saw
##erved
libs
marawi
races
guine
##ograph
debut
##ugent
emissions
speeches
##ahn
##ahont
haram
insan
##aze
oppression
impose
##quarters
regard
pressured
surf
surrogate
headquarters
generation
suspend
visiting
holoca
played
anymore
interviewed
popul
ackn
pushed
serial
approach
cubans
keystone
frees
virus
disputes
hometown
screen
auton
prosecution
divide
banker
bankrupt
punk
##phone
meme
romania
rising
150
defended
teenage
follows
rocket
hatch
insurers
escape
grows
extremist
micro
uncle
eyeing
tourist
tourism
overseas
portland
renegoti
scottish
locker
unpopular
creates
scrut
obstruct
identity
disrespectful
neocon
producer
encryption
riyad
customer
bosn
disclosure
tightens
reopen
thrown
shirts
fantastic
fdp
strange
assets
surrender
samantha
passengers
survivors
undermine
pigs
francisco
describes
mlk
separatist
sacked
loyalty
tapes
compromise
atlantic
akbar
projects
tactics
intimidation
mohammed
traitor
barnier
dyer
falsely
basketball
performance
stephanopoulos
divorce
eviscerates
resettlement
kosovo
luther
anonymous
disastrous
comparison
unacceptable
yahoo
##ahontas
holocaust
acknowled
riyadh
49
46
bin
bast
bott
bunch
bought
cake
cock
cert
fol
fif
foul
gates
hails
kh
kuc
kabul
lord
map
mount
naked
pill
panders
sail
sight
tay
tass
typ
uber
ucla
##ule
##oge
##ees
##ease
##ford
##pen
##hner
##au
##ield
##vel
##wr
##whel
##week
##oned
##atr
##itors
trap
##icut
##ilit
##ilation
thir
forgets
##ente
stey
whe
##aded
##cha
chick
sham
##think
##anded
clot
##rah
goal
heard
heated
##icant
sums
spit
newly
exerc
abadi
unloads
lauer
alan
overwhel
crushing
note
##ificant
##range
sense
republic
engl
##ags
##agues
donate
outlets
##aph
disease
##emont
secrets
havan
boot
expands
exports
doom
dogs
dobbs
suppression
flies
governors
origin
roasts
intens
newsweek
attacker
protected
##icting
minds
defies
turmo
libert
campaigning
##retch
recent
recip
2014
harder
insider
airports
nationals
opposing
decisions
violated
desert
delta
material
foreigners
transform
yourself
bars
barb
posting
catch
fees
peters
accusers
committing
protestors
discussing
daniel
buried
internal
serving
convince
cutting
profit
##going
failing
reduce
keny
maintain
##ology
watergate
curren
cheers
replaces
dumps
clearly
longtime
praising
surprised
deeply
charlie
legislature
horrifying
##encing
professors
strongly
centers
focused
microph
##andering
reaches
stabbed
negotiate
apartment
hispanics
displaced
poster
websites
connected
connection
successor
hook
hoax
wedding
jihadi
saleh
engine
undo
evacuation
boehner
witnesses
denounce
triggered
hanging
santorum
deleted
describe
ronald
stirs
dragged
separatists
gabri
segment
smuggling
houthis
guatemala
sabot
sniper
suddenly
elderly
alternative
rifle
registration
geneva
permanent
pharma
connecticut
semitic
prospect
english
havana
turmoil
acl
ailes
bam
buck
buzz
bilateral
cos
dar
fence
gh
geral
gins
hq
hud
hab
hints
jason
mul
nons
nix
nugent
pic
pee
pens
pock
rates
ride
rural
sri
table
yates
##uh
##mac
##ole
##rence
##eak
##dom
##dles
##demont
##pers
##ten
##nels
##yder
##hran
##cade
##coming
##iod
##ipped
##bul
##vant
##30
##xp
##inian
##arant
##inge
toky
##itage
trend
##edown
##icate
##ilds
thwart
reh
forec
onto
##igdemont
stri
##child
chase
##ctr
shakes
shady
shawn
constit
##ocument
obv
cleric
presence
ability
##strom
unemp
blat
bless
meghan
##encement
##iking
heritage
warri
scene
##izer
explo
refusal
tehran
gren
grid
gram
grif
mining
defiant
commencement
particip
offices
appall
libr
columb
interp
marks
marsh
log
actors
##eph
##ashed
guarant
compared
sheila
ended
assess
debbie
permit
permits
period
epip
2011
2010
2019
supremacy
decree
investors
retreat
urged
fundament
barbar
opened
relatives
prefer
suspic
broken
bravo
visited
worldwide
belief
belong
snar
snyder
collect
colleagues
hoping
farmers
trev
gotcha
puigdemont
slamming
##pitals
drain
##vaney
returning
revive
ruin
lawsuits
restra
macri
##angel
yrs
subur
specific
##empt
challenging
skit
skir
moroc
laughed
replaced
##renching
yemeni
greed
##stitute
hotels
moder
glad
duke
ignorance
distract
muham
programs
christianity
troop
complex
prediction
foes
credibility
horror
reading
easier
trolling
##uffs
takeover
takedown
misleading
stomp
##hani
stabbing
bullies
plea
negotiator
negotiations
hospitals
traditional
cheering
floods
enforce
rolling
unfair
successful
uganda
skewers
tank
undocument
products
dissent
dissident
escalates
berlin
##rapher
machines
rosen
throat
subpoenas
drawing
circuit
mysterious
improve
nhc
broadcaster
aggressive
advocates
embrace
august
skeptical
champion
heavy
manipul
ingraham
sweeping
wilbur
fantasy
farewell
neutrality
featuring
coughing
mixed
andrea
subsidies
mcmaster
huffing
pizza
frightening
analysis
graphic
dingbat
pocahontas
arkansas
indoctr
pregnant
stronghold
guinea
autonomy
overwhelming
gabriel
mulvaney
nonsense
tokyo
constitu
unemploy
undocumented
43
72
bed
bish
dur
dub
dose
fm
fee
gest
gear
jos
jenn
lan
lunch
mort
nu
py
por
pul
rw
ster
ssy
tir
vince
wer
wives
wapo
wrenching
yard
yuge
zones
##mate
##mys
##mission
##rd
##rak
##fia
##torm
##hum
##kins
##west
##inating
##inable
##inson
##anky
tra
##icum
##icated
##ilder
threw
##ionate
reign
##elds
##tsbur
sting
staged
##urge
whiny
##adel
##ima
##iment
shep
##lyn
conce
nep
neck
##ither
season
ast
leaking
##ieve
spat
offended
caves
cairo
lawn
reserve
scra
##izz
boots
export
doors
supply
tamp
koreans
intent
backers
mayors
allah
camps
##icked
consult
##nski
marines
finicum
invite
##bermann
monster
depend
evangel
##ogy
recomm
charts
mafia
airstr
opposed
violating
regret
swift
swipe
deserve
supported
legally
urgent
strip
drin
drivers
drink
slaves
barc
nationalists
suspicious
significant
##boy
walls
acqu
generals
grabs
serbia
elites
happening
freaking
##umbling
conviction
allegiance
moments
electors
badass
kingmaker
cancelled
crowds
parliamentary
reviewing
##zynski
repealing
fourth
laughable
civilian
glass
humanity
walker
##ification
ethiop
salary
capitalism
warnings
govt
limited
predicted
write
cracks
cooperate
contrad
haters
hatred
punishing
trolled
product
production
extreme
royal
cameras
stooge
wells
accepting
##egration
tourists
celebrities
##itten
captured
trader
mobil
conflicts
promotes
lifting
levin
levels
creating
petty
solve
survive
paint
clarity
separate
backfire
identified
complaints
olbermann
tanz
toddler
utter
random
tribun
tribute
icahn
ramaph
squad
slapped
euros
appointment
cultural
##iption
lunatic
discovery
bonkers
hangs
santa
##breaking
capable
snowflakes
tyran
quote
quotes
recruit
correctness
##idelines
assistant
kidnapping
rouhani
sinks
sloven
prompt
uncertainty
tunisia
evacuated
millennials
medicare
accomplishments
license
forgotten
olympics
outcome
pittsbur
##point
scenes
transcript
collapses
miserably
seizure
defector
feinstein
abruptly
peacekeepers
electronic
supplies
genocide
fabric
saint
regarding
scrutiny
kuczynski
clothing
epipen
fundamental
trevor
lanka
tirade
weren
ramaphosa
pittsburgh
34
47
84
bure
dou
ego
faking
gro
gill
gork
gross
ghet
holl
hikes
hiro
iv
jur
livid
nerv
ovation
tys
tony
tiny
uzb
wave
wann
zar
##mad
##mail
##mates
##ram
##ef
##eign
##feld
##fakenews
##pg
##tt
##lasio
##gir
##gage
##gles
##ht
##aad
##cial
##beat
##just
##erated
##ini
##inting
##atri
##itude
thr
rex
##acter
##acey
##roar
##eop
degen
ank
##omfort
##igen
stam
sticks
##ola
##ote
##urate
##adan
##char
chosen
##vereign
necess
##ista
prosp
obj
obtain
##andals
##ested
suc
such
spill
spends
##stan
##uder
alb
overd
overtime
plag
##agers
donated
disqual
uproar
weather
wears
couric
intention
integration
protections
##arded
grade
consent
killers
martha
accent
##yang
param
monica
phones
endan
respects
admission
recuse
deblasio
charles
sovereign
airline
nationwide
oppress
aware
awful
knocks
missp
impasse
desire
corresp
##ongyang
dram
drives
driven
slush
payer
catast
exploding
nye
suspension
builds
holes
rapes
rapists
hurting
syrians
billionaires
tarmac
irre
timeline
croat
funnel
picked
##insky
steals
drags
attorneys
murderer
standards
baton
restored
rejected
stunt
devices
homophob
rebukes
frame
autom
photog
prosecute
networks
choices
silver
waterboard
penalty
required
filed
cheating
morgan
personally
attempted
violently
offering
comeback
deepens
predict
falling
demanded
readers
sitting
produce
includes
receiving
reactions
momentum
informant
operating
experience
stabs
please
dirt
heartbreaking
oversee
bulgar
rescued
previously
increasing
promoting
assassinated
rowe
rolls
ugandan
clarify
punches
scrub
jihadist
skewer
illness
commercial
spreads
delegate
delegation
beginning
peddling
grader
digital
ramadan
shameful
settlements
awarded
priorities
##feed
stamps
woods
constructive
ode
recruits
broadcast
sleeping
aggression
learn
associates
latinos
stalled
segreg
apparently
pedophile
motorcade
transportation
incompetent
unexp
nordstrom
grassley
version
example
sensitive
volcano
reshuffle
frustrated
biofuels
opioid
celebrating
scheduled
folks
taylor
currency
microphone
aclu
ginsburg
nixon
pyongyang
conceal
utterly
gorka
tyson
uzbek
correspond
unexpected
37
41
44
51
baio
cot
cream
dim
dash
duty
fu
fro
fallen
fidel
gor
gif
hes
jen
jeop
kate
mp
math
mold
miam
mtv
nas
niet
orange
pool
sod
sally
tub
tag
tong
tips
##me
##oes
##rist
##tig
##ym
##graph
##bard
##zins
##zani
##xist
##inos
##inem
##aning
tool
toss
##itable
tri
##icon
##iced
thom
thaad
inner
reaching
##acon
##asp
##amation
##amber
##amble
##leck
degr
anim
stood
stable
stores
##urt
##adic
##cht
chamber
shaking
shaked
beer
##andez
##sein
##eston
asst
##ulance
hears
exod
prestig
abused
##state
bloc
##udge
offsh
caut
caps
comfort
enters
##ibbe
arsen
##uming
outlines
lawrence
dish
brze
resur
upon
upgr
upcoming
supposed
taun
synd
hasht
banner
grills
defin
defund
defamation
manh
manches
management
colon
dealt
talked
fines
finland
caribbe
industr
confusion
schol
guide
deplo
counts
detect
amount
ammon
admir
admissions
tops
##makers
harbor
boris
hostages
corps
raw
slur
nominations
barzani
genius
catches
takei
prez
direction
deadl
pomp
poem
signing
setting
buff
buys
holiday
testing
apec
bette
##ordinary
passionate
hurdle
budd
departure
despic
farc
dancing
kurz
fireworks
series
mayoral
faced
listening
greater
edge
allegation
restart
assaulting
profits
devil
globe
hamm
##lessly
midler
subst
subway
humiliate
colluded
reduc
damaging
sara
division
pena
moron
natural
sharif
##phia
celebration
romanian
affected
affleck
praised
joining
ukrainian
salv
regulators
teenager
2009
friendly
complains
sells
hussein
valley
kevin
vacc
blacklist
flex
renews
renewed
saving
married
satan
popularity
entertain
smacked
courage
pretending
felons
delivered
identify
tanks
immediate
scores
mitchell
meaning
recognition
angeles
hecklers
deplorables
suggesting
disclose
grabbing
##eumonia
disappear
bragged
fatal
##brecht
extraordinary
divisions
trailer
reverses
abandoned
registered
vehicles
bashed
tyco
disagrees
delete
temporarily
lobbyist
suffer
bolster
mladic
encourages
encouraging
learned
blew
tolerant
tolerance
prompts
practice
apparent
loyal
philadel
losers
inequality
viciously
stresses
wonderful
pinera
monitoring
fortune
sacrif
atheist
districts
obliterates
pneumonia
pilot
rabid
transparency
puppet
optimistic
demonstrates
##guard
overtur
discredit
lyin
initiative
unanimously
fugitive
fifth
steyn
sabotage
snarky
restraint
morocco
huffington
jennifer
ivory
waterboarding
cotton
jenner
jeopard
miami
nieto
##zinski
thomas
shakedown
exodus
prestigious
brzezinski
manchester
caribbean
philadelphia
32
53
59
55
800
ay
aver
bub
brat
bapt
cf
cp
cz
coc
ceme
dance
ec
fist
gal
gian
hail
hated
horse
kiev
lik
nod
nick
pam
pour
pbs
pending
rot
sd
sie
tip
wary
yale
##mz
##rio
##dam
##fare
##gle
##gely
##hal
##hol
##ios
##bal
##bit
##vely
##viet
##jury
##ester
##oral
##itory
##itely
tree
trips
##edge
theres
##ionage
rever
reich
##rel
##elona
##levant
decept
stages
stays
stretch
##oly
##uru
##uries
##aken
##erst
shap
shred
shape
##acking
conced
##irm
bear
bears
seizes
seoul
##ppers
clay
clerk
climb
ash
reput
repatri
afd
spies
spark
abuses
lap
lavoy
##ially
watson
agric
meat
cringe
plows
envo
##ibution
adele
##assified
disreg
brist
scolds
scandals
##izr
boos
expels
suppress
refle
teaching
ord
roof
background
##athers
allahu
grip
grace
grands
antitr
consens
mog
howard
interrupt
plants
dealing
lots
iranians
finish
carp
cares
cards
##rete
monk
oprah
evasion
compare
gunmen
gunfire
tweetstorm
imminent
##osexual
assim
helm
helton
charter
soviet
perver
perjury
harris
spew
inspect
##ullah
missed
sandy
sway
swear
delib
sexism
retail
##eneg
struck
transfer
drama
drilling
slaugh
barg
investigates
investigations
headed
paych
childish
incoming
tested
everybody
catalans
passport
hurdles
accusing
desperation
timing
extort
concrete
stewart
messages
classy
hitting
angers
##election
##umble
declaring
resigning
101
veryfakenews
mylan
jobless
restruct
maced
profan
privat
femin
subvers
failures
hunting
##shima
collar
covered
craft
removing
##ological
lincol
skills
curt
personnel
singing
greet
mode
revealing
letterman
endorsements
naval
crookedhillary
ranking
deeper
energ
2006
credible
credential
nigel
readies
easing
largely
boycottn
##ifax
operatives
mockery
hysteria
unclear
uncomfort
plead
heartless
celebrations
portug
bullet
capture
highlight
renewal
displays
assassinate
survives
painful
connections
formally
prayers
mcdon
lewinsky
trashed
purple
bosses
motion
olig
employer
yellen
##attled
gradu
troubled
organizations
escalate
multi
shield
torched
suggestion
deranged
cooperating
espionage
papua
contractor
lunacy
wreck
performing
ownership
shouting
undermining
abdullah
sponsored
equifax
ladies
##icipal
examine
slov
schedule
montana
retweet
lesbian
##hole
manufacturing
anarchists
ssed
appla
academic
deployment
incompetence
sprayed
betrayal
volunteers
sympath
miracle
municipal
route
reconc
recalls
shifts
unhcr
diagn
task
intervention
override
principal
bottom
khizr
buzzfeed
geraldo
##children
obvious
beliefs
greedy
joseph
nuke
airstrikes
barcelona
tanzania
tribunal
hiroshima
plagiar
irrelevant
photographer
bulgaria
odebrecht
tongue
degrasse
offshore
arsenal
deploys
despicable
sdf
agricult
envoys
grandson
antitrust
restructuring
lincoln
credentials
38
61
62
89
85
911
ach
aka
avert
bun
baker
cft
cup
cyp
divers
faul
fury
fulf
fuming
gent
gul
gott
hood
huh
hedge
jol
klan
kinder
liz
mour
morm
mandal
nurs
ox
pose
rt
rh
rat
rican
rome
rose
sel
tit
tables
vin
vig
wy
wip
woo
wishes
wrest
xl
yon
##uals
##min
##obia
##rus
##rison
##ean
##doch
##field
##pass
##ni
##nish
##niest
##lus
##lif
##life
##loph
##gart
##hib
##hap
##hoon
##aid
##aut
##aits
##can
##cle
##ioc
##iors
##imps
##bye
##vens
##wall
##eror
##inates
##anks
##anced
##oning
##enh
##atters
trends
##isa
##idal
##ilia
init
reacts
reelection
##acious
forb
##tert
deuts
stations
sticking
##chi
##chool
##imes
chip
chose
shrug
shatter
concl
cliven
closure
obamatr
reply
##rav
heats
##iece
##vegas
spell
newest
exiled
##mentary
##uding
lauds
##ope
##opes
##endez
##itect
offender
cair
enab
breath
##ibuster
arson
ador
donates
outp
##aprio
bron
brace
brady
braces
##ipts
elementary
resour
##anted
warner
scouts
weight
boosts
expensive
refin
refers
flow
flop
flames
medal
teeth
hastert
defensive
manning
territory
202
tale
loom
loony
downpl
accurate
milo
parks
confisc
monitors
##ounding
depot
window
lefties
amt
asset
charities
soil
sochi
sanaa
bigots
awaits
knee
imposes
swap
sweet
discip
striking
##amese
slips
barry
panels
candidacy
highway
prec
preacher
pepper
##coni
travels
interviewing
announcing
deniers
denmark
rooms
murdoch
fargo
publish
promo
copy
activities
funniest
texts
burund
handc
controlled
angloph
shockingly
murdering
returned
yorkers
shutting
spoken
sentencing
rejection
electric
goodbye
legalize
frag
emperor
submit
ambulance
mosul
kingdom
possibly
challenged
damages
auto
madness
embarrassment
skips
filibuster
menendez
120
basis
vetted
cleared
buildings
epically
memos
turnout
100k
limbo
richard
charleston
jumps
written
2005
credits
recorded
churches
contracts
fearing
blowing
larry
responses
royally
##bbed
importance
vietnamese
maga
reached
addresses
rescinds
saves
prevented
golfing
mobile
karl
positions
hungry
hungarian
pretend
formal
entirely
lasvegas
hospitalized
struggling
wildlife
instantly
dissidents
graders
tribal
alarming
berates
berlus
bailout
uphold
appointee
##feit
patriotism
differences
honoring
##letes
rejecting
lacks
lungs
##ractive
racially
effective
rioting
warship
masks
swinging
figures
oblig
demonstr
legendary
suffers
postponed
scientist
ironic
tickets
sponsors
imaginable
advocate
wiretapped
persec
revenue
rouge
proudly
lectures
agitators
physical
athletes
architect
atlanta
houthi
academy
licenses
owns
technology
isolated
shelter
recovery
granted
sympathy
rumors
individual
individuals
windows
loudmouth
disgraceful
conversation
revolt
liars
demolishes
crazed
robertson
egg
eliminate
worship
intolerant
surfaces
bosnian
sailors
typhoon
intensifies
libertarian
transformation
pockets
moderator
rosenstein
constituents
##urgeon
shepard
tyranny
promptly
ghetto
holland
necessary
endanger
sovereignty
dramatic
funneled
concealed
triump
cautious
pompeo
buddh
tycoon
baptist
cpac
giants
reverend
reputation
disregard
paycheck
subversion
mcdonald
slovak
cftc
gulen
kindergart
mandalay
yonhap
deutsche
obamatrade
berlusconi
39
36
42
78
93
95
92
amp
bb
bes
boun
bare
bound
bacon
cate
cked
cumm
dart
es
ech
equal
fy
fret
fought
gall
gerry
jane
kan
lop
lone
linger
merr
mounts
mansion
nam
omar
oding
piv
pum
pear
pok
pure
pimp
ral
rants
rated
rough
rift
slim
sound
stern
tu
tast
tsa
wav
wages
wounds
##ooth
##rand
##da
##drop
##pects
##sts
##tic
##nold
##name
##list
##gel
##gory
##hmer
##aq
##bm
##bro
##kill
##wire
##zi
##zen
##organ
##anes
##anation
##anges
##eney
##ater
##atriot
##aria
##itual
trending
##eds
##icating
##icient
##ilant
trumper
institute
inmates
reads
##read
##aco
##roots
##roll
##lete
##leader
deg
stan
stories
##urig
##urse
##urity
whit
whate
##immer
##osis
chalk
cheney
##uting
##ivity
shade
ships
shredd
##acks
##irms
##thus
procla
beware
semit
seized
##unks
##esting
client
##ulz
repair
gohmer
sucker
##ieving
spills
spaces
preserve
abusive
##stage
unw
unch
unif
unkn
blown
blank
blitzer
blaze
lazy
##opoly
alle
align
cruel
caution
cable
causing
##rome
##essions
##eyard
enthus
##aba
arnold
##umers
##agram
adults
outgoing
resident
reserves
resumes
warm
warfare
##emon
statehouse
joking
pruit
flips
mediate
blackmail
orban
rove
intr
##ecess
grilled
defeated
consumers
mobs
terrify
libel
2000
loans
looming
##nny
accel
milk
parry
yearbook
indicates
confession
schulz
guidelines
mongering
##herent
winter
detaine
detente
butt
recession
recounts
topless
secretive
eminem
##ahl
permission
insists
insiders
shove
misses
imports
violate
violation
violates
investor
investments
deserves
britons
sexting
channels
urban
ramps
transf
surges
annual
slit
nominated
panicking
reluct
embold
embattled
johnny
busy
visitor
freez
freeport
smooth
betting
belt
advisors
hurts
latina
collection
acid
bombings
tariff
farmer
irreg
bench
cros
palace
##ierre
burger
keys
execution
standard
batman
gloves
restroom
histor
device
execute
markle
redux
challenger
careful
auth
adding
filing
launched
125
attempting
punks
leakers
##ularities
##veni
##steen
##gotiable
safer
findings
continued
joined
hello
196
198
provision
regulatory
rocker
##ciless
legislator
finances
##awks
##awns
commentary
bloodshed
deportations
included
africans
cameron
weighing
avoids
guilt
bodyguard
briefly
location
kicking
selfish
##ophobia
metro
explaining
negotiators
250
increased
appearances
pricing
lifet
unpatriot
losses
excuses
flooding
mistr
petra
unlaw
pathetically
lavish
float
rollback
fundraisers
script
scramb
jihadists
lewd
amazingly
england
engagement
accountable
wildly
houses
instant
instagram
feeds
tune
troubling
snowden
organizers
garb
tearing
alarmed
scorch
expanding
protectionism
catholics
mandates
mandatory
heckler
robot
confronted
kyr
description
mulling
designed
##soft
strategic
understands
unbelievably
strangers
implodes
abandoning
towns
bullying
sponsor
revolutionary
merciless
persist
podium
poisoning
poisoned
exchanges
pornograph
##keeper
contested
skeptic
deduction
coffin
agitator
coordination
coordinated
qualified
qualify
physically
ellison
manufactured
anarchy
beef
ambushed
spineless
accomplished
touching
observers
observatory
occupy
requirements
volunteer
granny
grassroots
infuri
sacrific
atheists
giggles
purchase
looting
length
determined
koike
insanely
populist
microsoft
shameless
recipients
forecast
stripped
appalling
library
suspicions
muhammad
overwhelmingly
unemployed
trapped
scraps
consultant
slovenia
##girl
degeneres
ankara
##charged
prospects
intentionally
paramilit
skewered
hesher
tubman
animal
dishon
syndrome
hashtag
admiral
hammond
cemetery
nickname
siege
clayton
bristol
extortion
boycottnfl
uncomfortable
portugal
oligarch
agriculture
mormon
ricans
vineyard
##author
disciplin
burundi
kindergarten
category
cummings
dartmouth
kanye
lopez
omarosa
odinga
pummel
pearl
ralph
whatever
shredded
semitism
gohmert
uniform
pruitt
detainees
irregularities
unpatriotic
pornography
01
3rd
48
52
57
67
74
81
9th
auster
bi
bart
bach
bilder
cure
dic
dug
dyn
dmz
either
fid
fishing
g7
gard
hats
htt
ii
kl
kaz
kham
lucky
mow
master
maker
makers
nurse
pere
piers
pandering
rav
raz
sic
sir
sink
tam
tally
tang
tighter
vanish
zom
##overs
##run
##round
##eus
##eveni
##de
##far
##pa
##pb
##page
##tan
##town
##nical
##gian
##gents
##ha
##aqu
##bag
##bast
##vut
##vitable
##0s
##wards
##jib
##onies
##atics
##atures
##alyp
##arm
##arity
##ario
##arations
toast
togo
##itim
##itlyn
tract
##isons
##ications
##rey
##reh
##rell
##acies
##acles
often
##elong
forfeit
##eol
##terror
##amous
##lee
deaf
anton
##omen
stal
stag
stake
stumbles
whip
##aders
##etch
##oshen
chart
chased
##ivery
shelling
shatters
shaba
istan
conver
negotiable
withhold
proced
##ocrat
seems
sebast
obey
obsc
clip
repr
reparations
##aining
sucks
spurs
excess
exempt
present
abu
unlim
unsec
unilateral
unthink
laid
lauder
##opher
##tons
overc
##orting
cab
cave
cavut
caitlyn
##rance
##ignment
comr
justin
enacts
##abil
##ibrand
adjust
##rator
coinc
bruce
residence
##aception
upbeat
warhead
scoo
##emb
hait
prin
boats
expel
usda
flap
norwe
governments
robin
robbed
backdrop
##ecided
museveni
grill
grasp
grieving
command
manage
goper
planet
dealer
dealings
congressmen
carr
carries
parad
parking
indigen
schwar
guill
guerr
complim
respected
recons
recused
character
##erties
politicized
soars
##rophe
ukip
illegitimate
mao
##yself
harri
underway
thanking
inspir
decent
decry
decade
await
destabil
imply
imposs
imperial
##olling
presser
pressures
delusion
delivery
retr
retarded
legitimate
##gyz
iraqis
millionaire
runner
runoff
anne
annih
slum
slip
barri
panics
heading
infilt
genit
explanation
michele
properties
##owski
freeing
buhar
letters
testifying
rapid
below
passing
kidn
idioc
counties
starring
sneak
snopes
denying
founded
firef
eln
fiery
fields
concessions
burk
buries
handler
error
revel
revives
teams
decline
declassified
myth
restoring
goods
profound
knowing
devin
fema
subject
badly
hunts
speculation
collision
venezuelans
fracking
earned
crap
globalization
arabs
silicon
added
balance
morons
checking
checked
ambassad
ranting
writ
staying
palestine
condemning
lowest
contraception
brazilian
commentator
insurgents
financing
##others
injures
injuries
##uffles
junta
keen
vacations
vacancy
influx
influential
costume
corporations
shortage
attendant
grandchildren
portray
searching
negotiating
succession
rescues
increases
lockdown
satell
greets
heroes
responding
responded
lifelong
posters
entered
scammed
unlock
representing
pretends
arrival
felt
lashing
gangs
packed
drown
narc
trusted
steinle
crashed
undecided
interested
colombian
producing
yelling
graduation
digs
garner
dodges
drones
expanded
square
angelina
hopefuls
uphill
widens
shipping
personality
suggested
chanting
designer
communication
dresses
dressed
parkinson
dumping
subpoenaed
wrecks
performed
masked
according
sticker
kissing
abduct
imagine
sacred
sacks
reiner
unleash
detailed
casualty
kneeling
corner
simply
practices
montel
pedophilia
researchers
hijab
matthew
tunisian
athens
inevitable
manipulate
650
partnership
battleg
battles
tactic
features
exceptional
nordic
corey
transcripts
provocative
miserable
narrows
magnitude
aviation
branch
png
boycotting
mutual
purchases
rainbow
conversations
unmasking
contributions
washed
dictatorship
spiritual
universities
mccarthyism
dismantle
cockt
##writer
thirds
wheels
exercise
kenyans
blatant
grifter
guarantee
indoctrination
gesture
mortgage
rwanda
nepal
drinking
ethiopian
mobilize
bureau
gillibrand
nervous
succeed
catastrophe
homophobic
framework
correspondents
gorilla
resurf
industrial
substance
sacrifices
overturn
jeopardy
cfpb
czar
cocaine
theresa
consensus
carpet
monkey
feminists
bunker
cyprus
jolie
oxford
vigilant
adorable
resources
anglophone
triumph
buddhist
pivot
tuition
lifetime
petraeus
unlawful
kyrgyz
sacrificed
bachmann
dicaprio
dynasty
https
kazakh
perez
zombie
##alypse
staggering
##oshenko
shabaab
istanbul
sebastian
unlimited
unsecured
unthinkable
cavuto
scooby
norwegian
indigenous
schwarz
reconsider
harriet
buhari
idiocy
69
68
94
97
aoun
auction
bails
bother
bites
bitch
bucks
bhar
bolling
cig
cite
dil
dime
dating
duel
dix
dna
drew
fec
fusion
fiction
faked
fuels
fathers
gw
gaff
gps
ghan
guru
hag
hint
hipp
ia
lu
lam
lists
lula
mile
myself
nic
nus
none
ngo
npr
naming
nerve
niece
ot
ouster
pts
pace
pep
pops
posing
raul
rages
rinos
sust
sits
sided
tent
taco
vom
vind
vogue
vault
vital
wt
wound
wishing
wipe
waves
ying
zimmer
##md
##rate
##rina
##ever
##eous
##dale
##pes
##part
##pok
##sd
##ses
##nis
##neck
##la
##luck
##gk
##hand
##cul
##cell
##cnn
##corn
##iac
##irom
##ique
##bom
##bec
##bling
##bians
##vet
##vili
##orist
##anic
##onian
##onard
##enomen
##atta
##atically
##arf
toy
toil
trains
tramp
##isand
##ede
##eding
##idem
##ici
reiter
rethink
##usual
##eley
theft
videotap
ones
##lem
##entine
dean
depp
angr
stones
##olle
##olved
##oting
whack
whine
##adish
##akash
##cher
##erse
chat
chry
chron
choms
##utee
##ctic
##ateful
shore
shaff
shamed
##ithillary
##thod
##throw
withh
beeley
section
atroc
clo
clap
aspen
reps
leaning
lepage
leonard
heal
##ieved
##ighth
exile
exceed
##stalk
unse
unable
unrest
unusual
blument
blunt
##uda
##udes
alma
##ounting
overthrow
offend
##ellent
demoral
meg
crus
crunch
criti
items
cautions
##essa
##ranean
comb
plumm
clinic
##abi
ariana
arctic
whitew
adult
outline
cohen
##osta
brenn
score
scold
weed
##ensored
joel
expelled
taunt
fla
flake
flaw
mediter
orthod
noise
maybe
protects
##ardino
courtroom
grues
mineral
##icken
moody
appropriate
sahel
saakash
interim
planes
dealers
policeman
logo
logs
quo
downgr
acted
carn
##club
invers
invokes
parag
schl
monopoly
militar
##herlands
depicting
winners
##ogan
phenomen
probed
probable
counted
amaq
assail
debating
epidem
2013
harms
undergo
underground
##look
knives
shoes
shopping
imper
##ques
regular
swears
swanky
deserved
arresting
chancell
hostility
##enei
##airs
forever
discont
mater
matters
veiled
slight
slays
panthers
victor
headline
payback
infidel
relax
fewer
pref
preview
preaches
broker
pointing
mccabe
inco
incor
incon
incite
incidents
playbook
somehow
buddy
interviewer
countdown
crises
dennis
traveling
popcorn
ordering
orderly
acosta
##lington
dances
firebr
serbian
elig
elij
promising
actively
realized
bury
burden
handover
boyfriend
stepped
stevens
controls
classroom
economist
angola
revokes
serves
##bank
conven
battered
publication
seeker
rejo
moms
mommy
empire
submits
homosexual
nightclub
rebell
rebuffs
mosques
begun
coverup
screws
fray
reds
agreeing
damon
damned
damaged
netherlands
sarin
##ermen
bankers
penn
sketch
requiring
addiction
curse
filming
cheap
balk
hardline
transgenders
bases
glitch
consideration
clearance
pullout
##phones
streisand
cyb
artists
articles
affili
apologizing
##yll
wrongdo
najib
clever
ranked
toughest
provoke
deepen
writing
rockets
frontrun
##iums
sometimes
horribly
##aware
progressives
dreams
outsour
outspok
sheriffs
punishes
louie
hannan
followed
creator
handsh
value
valentine
honors
booker
conspiracies
informed
daddy
halls
keurig
pollster
experiment
uncensored
selfie
grande
grandst
##ascar
bullets
negotiation
captain
falters
landmark
primaries
lynching
mentions
unpaid
excellent
focusing
interfering
interfered
creative
solar
severed
couples
vanessa
representatives
unfithillary
successfully
arrived
disrespects
scramble
prayed
backfired
delivering
creditors
bags
drove
kaspers
beauty
illust
lgbtq
dismissed
purp
complaining
21wire
rigging
rushed
tortured
spotted
gutierre
documentary
icbm
ramos
teargas
funerals
pieces
protectionist
squirm
lottery
resolved
resolutions
devastation
tantrums
##place
disclosed
designation
tackling
discriminate
throats
villain
##worthy
awkwardly
bono
surround
dozen
innocence
circle
ultim
undermines
editorial
lobbyists
suffering
boliv
mouthed
improved
katrina
assistance
filmmaker
premiums
pursuing
ensues
embracing
cornyn
associate
osce
knocked
molester
spiral
physic
harmful
evacuate
ultra
athlete
heavily
ditching
opportun
nailed
guatemalan
tricky
unease
advertisers
condemnation
occupation
olympic
outcry
proceeds
scenario
setbacks
affordable
provocations
beheading
rancher
obliterated
vandalized
##respons
spoof
examples
disarm
disarray
snubs
axios
thoughts
shifting
transparent
settles
settled
revolting
optimism
stadiums
rivera
reassure
closely
confrontation
solidarity
fishermen
insanity
acknowledges
doomed
barbra
kenyatta
warrior
warriors
marshall
barbara
suburb
stomped
manipulated
bishop
durbin
fmr
poroshenko
##human
dependent
evangelicals
contradicts
productive
thrilled
misspelled
segregated
fuj
nasa
soda
capsizes
upgrade
buffett
salvador
vaccine
bubble
repatriation
mogadish
perverted
##enegger
macedonia
profanity
navalny
applauds
diverse
mourning
initial
conclusion
refinery
amtrak
fragile
hollande
slovakia
amputee
gerrym
pokemon
unchanged
emboldened
crosstalk
mercilessly
dishonest
0130
bartirom
garden
khamenei
lauderdale
comrades
annihil
ambassadors
narciss
abducted
battleground
vigilante
kyrgyzstan
schwarzenegger
bharara
dixie
gaffe
ghana
hippie
iaea
nusra
ptsd
yingluck
zimmerman
reiterates
angrily
chrys
chomsky
shaffer
atrocities
blumenthal
critique
brennan
mediterranean
orthodox
gruesome
saakashvili
epidemic
chancellor
firebrand
elijah
outspoken
kaspersky
gutierrez
mogadishu
bartiromo
1st
54
77
ai
ase
aven
ba
bent
buc
bike
baff
cd
cs
crop
da
dw
dent
dow
dian
dair
dual
dave
dares
dumber
diet
dumm
ess
fet
fists
fern
fash
ferry
gym
glee
hass
hip
hind
iii
jerk
lia
lith
lern
luck
lighter
mothers
numer
nukes
odd
pd
pc
pran
pork
pause
ports
pounds
ray
rod
raging
sings
sier
tore
tuss
tiff
tatt
voc
vip
vax
wra
wider
wires
ypg
zoo
##uctions
##oons
##egr
##eats
##fell
##sters
##sung
##tr
##tains
##tese
##night
##nopoulos
##lie
##yr
##gment
##ao
##cut
##cast
##iels
##bies
##kin
##krel
##ja
##erted
##ori
##oration
##orrow
##arus
##arms
touting
##ito
##itious
##iscl
##educ
##icing
##ouf
truce
ther
##ionary
##recy
##usts
##asive
##asph
##rot
##ela
##elet
##tering
##teries
deem
anx
stuck
stacey
sturgeon
##oline
##urer
##chin
##imed
##imori
##ete
##eton
chess
chides
choking
chasing
##ivel
##resident
shouts
shkrel
nearing
##ira
andro
proc
proven
prostitution
beans
seals
seah
seizing
##unction
##seille
aston
asap
asham
goon
afgh
##ieves
sput
spous
spits
spont
spelling
spacey
##iannopoulos
exon
exits
preserved
preschool
##sta
unn
unins
unrav
unauthor
blond
blitz
blasph
lag
lax
alger
twe
offending
crumbles
cranky
caes
caho
notes
seniors
plug
placed
enrich
##aball
##ibol
##rators
billy
outed
outbre
##apit
lawful
lawbre
attractive
whoever
eleven
warms
scan
scum
scumb
scoop
##emy
##eman
secrecy
##astically
prays
prisons
refund
taught
tapping
flir
##ucts
##uciary
medi
mediation
northeast
org
integr
backtr
##ecially
##ecurity
allied
minions
defuse
commutes
consul
showers
turbul
##ffiti
##issy
appropri
euph
gopers
marry
margin
marxist
marseille
loads
quad
quite
##underst
finnish
ifx
contempt
##cles
invent
parano
indef
schilling
militiam
depress
evan
winds
probation
gunpoint
sheen
counting
amm
admon
assur
assures
assignment
judgment
recently
##auliff
healthy
southwest
##aho
daycare
sane
sanction
chrissy
harmed
factor
righteous
##rows
decre
decapit
knif
improp
impression
imprison
regain
regions
swim
desc
themed
legs
changer
hosted
coron
urine
urging
rulings
stranded
drudge
##uclearization
christopher
##iliation
older
slide
slashes
nominating
bark
barely
franco
infamous
gener
reliable
relieved
fever
preach
directs
brook
bravely
signatures
famine
critically
smoke
smiling
##boys
##books
socialists
socialized
peter
testifies
raps
belarus
advised
passage
ideol
idaho
aids
starving
snake
snaps
denuclearization
founders
commitments
bombed
panelist
farrak
irrespons
graffiti
daniels
published
firearms
serge
issuing
palm
fiat
texans
weekends
releasing
picking
radar
pump
##flix
burqa
handel
handles
stealth
patton
pattern
patient
patients
erase
##coin
110
execs
convin
convicts
convuls
edited
ruins
batsh
conducts
##ipline
dispar
disperse
globes
startling
##goers
executing
executed
ambitions
ambitious
collude
journalism
redist
redneck
earn
earning
aborted
craig
globalists
netflix
madonna
diver
penal
penis
curtain
chev
cheated
laughter
disgusted
greg
##aneous
basil
maltese
##hammer
walked
argues
arguments
apologized
safeg
naive
salute
197
completed
surprises
freedoms
fallout
##afe
foiled
rocky
2004
legislators
cracked
condemned
recordings
wingers
organize
organized
authorization
birds
pictured
accession
harassing
honored
taiwanese
##uffed
castile
##bby
century
lessons
agreements
tomorrow
cowgirl
cowboys
misunderst
blacklists
impeaching
accepted
acceptance
addressing
crossings
heartbro
shortages
grandm
dumbass
portra
gasoline
savings
previous
potentially
counseling
australians
concerning
chapp
chaotic
broaden
karen
countering
counterterror
counterpart
cheerleader
fairness
suicidal
excited
mistress
interfax
paints
painfully
rowling
##walt
lavar
georgian
clarence
dictionary
punching
explosives
separation
gangsta
volat
lewand
obstacles
engage
identifies
rushes
deceit
olive
undiscl
produced
##attan
gutfeld
utilities
install
tunnel
triggers
ferrell
weaken
beret
sidewal
memoir
##rolling
booze
robber
deploraball
arabic
torch
verge
expectations
denounced
derail
faux
tighten
disrupting
dumped
triggering
especially
planting
jewel
developing
fatah
##worth
stranger
worthy
shipment
500k
masters
brainw
extrav
circum
quotas
deletes
strengthens
bolton
angering
lawlessness
assisted
dragging
encouraged
neighborhoods
equip
soften
principle
princeton
summary
biker
reinst
insulted
kneelers
fools
gabbard
oswalt
pardons
lesbians
lecture
anarchist
youths
compromised
disappoint
ditches
gaga
##ova
unsafe
surgeon
technical
bitcoin
boxes
contacted
betrayed
snipers
terminal
sudden
springsteen
infuriate
infuriates
collapsing
provocation
munich
renzi
bumper
ranchers
felonies
certainly
seizures
emirates
mutilation
telec
venue
twisted
escapes
escaped
renewable
volcanic
botched
methane
tablo
demolished
craziest
quarterback
shrin
principles
hyd
renegotiate
bosnia
acknowledge
49er
bastard
mountain
wheel
chicken
exercises
original
buckle
cosby
ghost
blatantly
grenfell
grammys
grifters
columbus
interpol
logic
assessment
barbaric
suburbs
skirt
distraction
bishops
sterling
tampering
recommend
recommends
stammers
objects
album
croatia
frozen
manhattan
scholars
deadlock
entertainment
cringeworthy
reflects
assimilation
swearing
privatize
energize
graduates
reconciliation
fulfill
gentle
wyoming
wrestling
shrugs
shattered
bronx
downplays
persecution
bounce
merrick
waving
unknown
reluctantly
freezes
mistrial
infuriating
shamelessly
paramilitary
austerity
bilderberg
fiduciary
sicily
vanished
antonin
coincidence
robinson
guerrilla
impossible
barriers
kidnap
writers
cigar
vomit
toilet
withheld
minerals
undergoes
infidelities
incoherent
eligibility
homosexuality
rebellion
cybers
wrongdoing
frontrunner
grandstanding
illustrates
opportunities
fujimori
narcissist
chrysler
asean
dairy
dummies
fernandez
fashion
lerner
numerous
sierra
vaxx
##educated
shkreli
seahawks
astonishing
ashamed
afghans
uninsured
unauthorized
cahoots
outbreak
lawbreakers
##auliffe
irresponsible
safegu
heartbroken
counterterrorism
undisclosed
00
04
5k
64
66
71
76
86
88
8th
96
aar
aust
bell
bav
bests
baa
bung
cass
cous
cade
cors
dh
dal
dare
ducks
dwell
eb
eul
eman
ebt
fey
fru
fits
fame
foss
faster
fancy
fiance
fisa
gad
gib
gown
giff
hw
hay
hust
hags
iphone
jv
jam
jak
jose
jama
jpg
ks
ker
kam
kra
kee
lud
luc
locks
liver
lighth
mit
mans
mick
mourn
mph
maps
masc
ns
nate
null
ntv
nascar
oas
oks
oman
pf
pon
pant
puz
pages
pier
posed
poke
puzz
rut
rust
rib
rah
rings
roth
rotten
ritual
sort
soul
sunk
simps
tall
tina
ticking
tuls
tumble
uh
u2
ustr
vl
var
vent
vend
vint
wp
wet
wore
wag
wade
wise
wwe
wax
woke
wto
wpen
ya
yank
##uay
##uum
##uep
##uador
##met
##matory
##oos
##opp
##oft
##rin
##rac
##rall
##rive
##rine
##rint
##eating
##dele
##dahl
##fw
##fur
##fast
##fund
##front
##furt
##pm
##pe
##ping
##ples
##si
##side
##tes
##tained
##tape
##nut
##nik
##note
##nandez
##yg
##gi
##gun
##gine
##game
##ais
##ca
##cod
##cons
##bik
##bern
##bull
##von
##12
##zz
##jud
##inform
##esco
##orate
##ancing
##ata
##atollah
##aly
##ales
##arts
toe
toile
toys
tours
towers
##itan
##itting
##itudes
tran
tray
trag
##mpdown
##idi
##idges
##idance
##icial
##icity
##ouds
reun
reaff
##rep
##reen
##rection
##asters
##elt
##term
##terday
##aya
theories
theorist
videotape
##enty
##enticity
dement
deems
##omed
structure
stairs
##oles
##olves
##olera
whom
##chan
##chest
##imated
##eting
##ette
chill
chest
chap
chokes
cholera
##uthammer
##ivating
shun
shown
shores
shaken
##irut
##geful
##istics
prohib
beirut
##ocol
seet
seem
##unds
##ando
##esto
##estr
cloth
clouds
##rab
lever
heights
heels
suv
spine
##iances
presents
abusing
##stre
##stad
##step
unint
unco
unified
unqual
unatt
unaware
uneducated
unesco
bluep
laos
##ussions
alban
##outing
offs
offenders
##ella
##ellog
meals
crumbling
bypass
##ifesto
##arta
plate
##odo
##oded
##odgk
justified
enact
enroll
##abase
breast
breaches
arts
arbit
arlington
##umed
##umbs
##agen
##agger
aden
outbur
attitudes
cook
coke
covers
cozy
cooked
disl
bridges
##ipes
##ipse
caller
whopping
whopper
hernandez
uploads
warmb
warrants
scope
##izable
##emade
##emma
web
weah
hairc
##ensely
##ccifer
bobby
expenses
refunds
usual
useless
usgs
flam
flush
flares
##atorium
##erred
orchest
rooft
syn
intact
noon
noam
##avor
aller
grades
grads
griev
defer
defle
defiance
default
defenses
camping
commits
manila
manifesto
territor
##erving
interrog
marx
marvel
lois
lover
looph
downs
downfall
terrorized
finished
carving
carried
##lammatory
##ernity
accomm
contain
##clipse
parody
indicts
indication
confid
guidance
guccifer
departs
eval
evasive
##ogyn
immensely
detected
superv
amy
assails
assured
recess
recapt
clampdown
##opsy
##ache
maid
wont
secured
undercut
insist
decis
destructive
islamization
impress
imposed
imposing
sandra
advise
swings
switzer
swipes
pollution
desec
briton
delight
retro
retake
retiring
legitim
sours
arming
studying
discipline
fedup
strings
stricken
rapp
transcan
drought
drastically
candy
olds
slogan
barbs
barring
bernardino
victories
headsc
payoff
hilarity
inflammatory
genital
cats
preced
prejud
poet
signed
freebies
pets
incent
incites
testy
passports
idiots
snoop
denier
founding
travelers
acorn
committe
powered
grapp
publishing
##anny
serb
elusive
crocod
facilities
realist
realize
communists
texan
weekly
burst
handled
excluded
destroyer
lasting
classmate
keynote
economics
119
murderous
freely
revision
revival
revived
served
servants
convict
emailed
battery
somal
jobbik
##angers
believed
believing
goodell
##ledge
knowledge
devot
empower
executes
homemade
confirming
reasonable
humiliation
begged
covert
cancell
redact
reduction
autopsy
mainland
##scale
summon
sarc
zimbabweans
chicks
silenced
auditor
skull
skipping
filthy
cheat
chech
balanced
baltic
babys
moratorium
menu
121
grew
furor
glowing
shark
celebs
finalize
servicemen
pastors
##grammys
balloon
drugmakers
longest
throwback
memes
absent
emerging
##venient
turnbull
hellhole
salacious
capitalist
capitalize
195
rank
ranger
sugar
provided
providing
regulate
richer
predecess
##afi
##afee
foils
parenting
welcoming
welcomed
cracking
superdele
estate
eases
insurer
professional
financier
casino
larger
obsole
fireside
harassed
withdrawn
reactors
updated
knees
foods
junior
avoiding
avoidance
marketing
vacuum
boosting
operator
140
misery
misogyn
tempers
acceptable
eyed
##iaries
selfies
heartland
oversaw
database
attended
fixes
savage
prevail
tradem
frankfurt
landing
landed
feelings
favored
hearts
plotters
broader
lifted
mentor
quitting
mistura
solved
solutions
represented
storms
poorly
birthright
hundred
sudanese
mcafee
separating
packs
deliveries
jackass
obstacle
engaging
illusion
trashy
teaches
##onto
drafted
motive
motives
neocons
pedestr
interesting
remembered
friendship
toddlers
minded
involving
utility
instig
instru
randy
tunnels
tribe
ican
alarms
weakness
dodge
labels
yesterday
upheld
memories
heckled
booing
devastated
beautifully
machete
##play
toronto
patriotic
derails
reopening
##letter
##lette
hamptons
hawaiian
bribe
bribed
contractors
##raction
displaying
bonds
shipments
mask
samsung
whistleblowing
tracking
mentioned
scales
recruiting
censored
chilean
postpone
bodied
musician
deterior
carriers
helicopters
improvement
retaliate
retaliates
patrolling
katy
occur
duties
equity
telegraph
branded
understanding
persu
ww2
implementation
slowly
treasonous
1994
embraces
roulette
elsewhere
skeptics
biograph
dedicated
gabby
osama
stalls
practically
pedophiles
lectured
existing
quality
archives
preparations
##door
projected
univision
medicine
owes
fareed
pundits
sabo
tricked
shoplif
isolation
boxer
competition
entitlement
affecting
traitors
opinions
requirement
psychi
proceedings
narrowly
waiver
distribution
pizz
versus
spoiled
boycotts
analysts
axis
pitches
vengeful
skinny
alexander
hijacked
etat
method
sunni
spurns
secessionists
ramping
biofuel
##bridge
closet
unanimous
quebec
morales
600k
objective
worsens
roasted
surface
populism
bankruptcy
obstructing
certified
pillow
darfur
habit
exploit
grammy
appalled
columbia
interpre
suspicion
belongs
collecting
muhammed
unemployment
evangelical
drinks
ethiopia
doug
grown
jurors
zarif
zarrab
albright
overdrive
disqualified
oppressed
segregation
gifts
taunts
definition
colonial
courageous
ayatollah
ecuador
gala
pamela
deception
concedes
retailer
slaughtered
bargaining
veryfakenewscnn
diagnosis
achieve
faulty
gotta
title
wiped
enabler
publisher
demonstrate
bbq
besie
degree
stanford
enthusi
transfers
tariffs
authenticity
scrambles
scorching
skepticism
obscene
reprieve
excessive
inspiring
cocktails
kazakhstan
dilemma
luis
nicolle
sustain
wtf
leonardo
scolded
flaws
slightly
incorrect
inconvenient
redskins
affiliate
handshake
physician
gerrymandering
bucking
gleefully
lithu
deemed
spontaneous
algeria
flirt
euphrates
paranoid
indefin
depressing
decapitated
brooklyn
ideology
farrakhan
sergeant
penalties
portrait
lewandowski
robbery
circumst
cybersecurity
austin
cousin
cadets
dhabi
emanuel
fossil
giffords
jakarta
jamaica
krauthammer
keefe
lighthizer
puzder
ruth
roths
simpsons
tulsi
vlad
vintage
wpengine
toilets
trayvon
tragic
reaffirms
clothes
uncovers
unqualified
##odgkinson
enrollment
outburst
warmbier
haircut
grievance
accommod
switzerland
transcanada
headscarf
precedent
committees
crocodile
obsolete
05
58
6th
7th
83
82
91
900
ah
ain
aus
brom
bone
bows
bonn
bounds
bhum
cly
cory
cows
codes
dol
dun
dust
dign
dock
dates
dlam
distan
dips
dni
eis
ely
eclipse
fend
frat
feet
fann
gid
gim
gull
gaps
han
hiv
hast
hugh
hode
hhs
hanks
icr
jor
jaw
jaze
jpm
kc
kal
kit
kis
lb
lil
lion
leo
lake
lions
lash
lows
mend
mant
mast
mash
mah
mizz
mounting
nin
nab
nosed
nsc
oz
oce
ought
pals
pave
pins
pics
pander
pesh
ry
rains
rats
ses
sot
smar
silly
sidelines
tn
tig
tons
tty
tense
uc
vu
vess
vale
vonn
wig
wicked
waning
wolves
xen
yu
yach
zin
zion
zam
zak
##uous
##uine
##umps
##mat
##mir
##making
##mine
##mails
##oved
##oids
##ras
##ria
##rations
##rors
##rory
##rising
##dp
##dit
##dafi
##fo
##fr
##fires
##per
##ped
##tar
##tland
##tically
##nox
##nically
##ls
##lord
##lane
##yh
##yet
##gt
##gol
##gates
##hi
##hot
##hate
##hof
##cen
##core
##cies
##case
##ien
##iated
##bate
##bath
##bron
##bands
##bird
##byn
##bitr
##brows
##vent
##37
##wh
##weet
##wise
##witz
##western
##watch
##zos
##jo
##iner
##inity
##orough
##eness
##enant
##atum
##ala
##alds
##arro
##arians
tomb
##itives
##itime
##iterate
trim
trace
trem
##isf
##edral
##idah
##idden
##icrous
##ilate
thick
thunder
thorough
inher
ree
reins
rewr
reorgan
rewards
##rec
##usions
##acity
##acelet
##askill
##roves
##rock
forge
forms
##eown
##aying
theater
deja
ana
##igible
stim
stub
stem
stakes
stiff
stump
stacks
##othe
##urers
##owed
##adows
##akenly
##chwitz
##imir
##iments
##imov
##osp
chad
choke
chases
chapo
##utenant
##ivated
##ivatives
shan
shall
shell
shines
##ackles
neither
prox
proactive
prostitute
bezos
##ocalypse
obnox
atm
##untle
##sexual
##ppy
##ppel
clue
cloud
clob
##ulus
reperc
repeats
lean
leans
goers
##ustice
##iegel
spa
span
spree
spike
spiegel
##ighters
preserves
abus
abol
##stal
##struction
##merga
unst
unbi
ungr
unites
unify
uneth
unborn
unjust
blisters
alum
alco
poles
politb
##endous
aging
aged
##outa
twin
offends
##ello
##ells
demot
russell
##ortun
cronies
watches
cage
byrd
coma
clinch
##ailable
willie
##ighting
enorm
enquir
enlist
bread
arbitr
##ummy
##agate
donating
outright
attends
coz
coats
copper
covet
worsen
disor
disband
discharged
brass
bride
brics
bracelet
##iphate
eleph
rests
reserv
upscale
uprising
scrat
scape
##izon
##asted
haz
prone
print
bots
boasts
flare
flops
flesh
flavor
imf
teigen
courses
orient
rogers
intro
intelle
intended
newsletter
attackers
backer
backstage
musk
muscle
taxi
##athe
alliances
banana
grief
grounds
minors
firsts
defence
defied
commanders
manages
managed
managers
antics
anticip
turks
##issa
apprec
20k
203
colors
intercepts
interrac
##urement
marc
maritime
loved
quiz
campaigner
downtown
finmin
milest
inviting
invaders
confess
confined
##ushes
schem
guts
guzz
opts
depends
deports
depicts
evol
evicted
phyll
compound
##uees
##biya
ammo
assert
judy
judging
recusal
debuts
debunk
soothe
emily
speechless
speechwriter
##onda
daylight
remained
reminder
rememb
harare
harves
##load
##ullin
aired
airsp
airpl
decert
shovel
imperson
##riarch
##riyet
registry
swarm
deserted
pressing
pressed
sexy
helpful
cord
corbyn
strict
strife
matches
veil
transmit
schoolers
cited
##iliar
oldest
slut
slashing
barric
##ealous
bernstein
humor
humans
investigative
postal
frantically
infants
genuine
sociop
explicit
nationalism
rallying
suspense
properly
visitors
mccrory
mccaskill
smir
smile
smash
smears
##inding
##otte
bumps
buoy
jeh
peg
bids
##sonian
playboy
beloved
advises
advising
passw
##heur
hurriyet
somewhere
moveon
starr
starve
snitch
snivel
administrators
##nerable
discussions
mural
dana
firewall
##annon
extending
extended
##griffin
elit
elton
issa
facility
facilit
activism
realizes
function
effig
effici
girds
##flash
melts
melissa
stepping
patent
patriarch
excluding
alias
drained
classes
truthbom
economists
115
117
murderers
revis
revise
reviving
revoke
##teen
edits
resigned
virt
caliphate
publicist
macau
litig
literal
sentiment
tvs
stung
profiling
legalization
lieutenant
devils
globally
privately
submission
msm
homeown
blockbus
collides
holders
europeans
fris
fract
reddit
ignites
careers
ears
earl
autistic
maintains
arabiya
sarandon
choir
marching
marched
otherwise
silences
diva
divest
divides
civility
ski
filip
chew
specialist
hurricanes
rubber
disguise
breakdown
breakfast
hardlin
cker
ckin
modest
moderates
furn
docs
males
malawi
malheur
punked
puntland
distance
clearing
balls
potter
absence
##ificent
cynical
roman
artwork
ethical
ethnically
apologist
navarro
disgustingly
salt
salaf
stupidest
doubled
richest
teenagers
wrist
##afly
foe
rockef
##ija
2007
parental
organizes
lowe
trainer
contrast
estimate
readiness
fearless
##cription
crimea
##umbered
compliant
compliance
complicates
anchors
bloodied
bloodbath
riding
strongest
valu
valor
injury
injustice
accessing
scarred
prepa
casting
kneels
basement
focuses
checkpoint
firmly
imported
criticisms
briefed
journalistic
requested
directed
stopping
dismay
experiments
educated
hysterically
magist
##iveness
locations
stabil
costing
eyew
eyebrows
aiming
metal
amendments
rescuing
savages
savaged
##estyle
locked
appearing
halfway
screamed
feeling
represents
hawija
broadway
broadband
lifestyle
cheered
flooded
mistakenly
scams
interfere
180
severely
martyr
##mob
rollout
unfounded
unfortun
ridiculously
domin
fundraise
praying
mcauliffe
##blocking
##blatt
audiences
beau
engaged
smaller
identities
dismissal
motivated
tankers
wildfires
relationships
160
employed
employers
completion
producers
involves
cathedral
gutter
gutting
peacefully
bowling
escalating
weakens
weakening
radioactive
2212
dodgers
canceling
bailed
squee
stockp
recognizes
recognizing
disability
evacuees
splits
robbing
robotic
widening
shields
kyodo
##rogen
verified
verify
verbal
expecting
designate
communicating
derivatives
tackles
tackled
disruptive
papal
bribes
bribing
cowardice
lunatics
villages
planted
displayed
bonuses
surrounded
surrounds
surrenders
obsessing
samar
spacex
implicit
imploding
brainiac
reversal
capability
registering
270
circus
wasted
dearly
dearborn
ancient
disagre
expressed
scientific
crybabies
fascists
kisses
kissinger
accompl
simul
sleepy
merch
softens
smithsonian
liberian
1992
pursues
reinstate
arrogance
indictments
congratulations
corners
sinn
shadows
association
bleeding
dedicates
deductions
foolish
montage
kathygriffin
molested
molesting
##harvey
##ilaterally
champions
coordinate
philando
introducing
introduced
motorcy
tunisians
nuns
vulnerable
heaven
adopts
textbooks
ambushes
honestly
gauntle
gatecr
gatekeeper
academics
battling
jumping
owens
wilmore
intimidate
currently
hypocritically
cellphone
isolate
contentious
competing
weaponry
birtherism
partially
switching
terminates
psycho
mcmullin
pardoned
pantsuit
shakeup
beheaded
springs
springer
signaled
magnificent
wwiii
aviv
available
baywatch
branson
routine
vandalizes
##ettes
disarming
roadside
reconstruction
##rophic
registrations
snubbed
steelers
disagreement
rabbi
unmask
escaping
creationist
etihad
liqu
reshuffles
secessionist
intervene
frustration
##ophobic
rebuilding
symbolic
initiatives
reassures
shrine
shrink
universe
overrun
adams
queens
opioids
dismantling
hawkish
schedules
fugitives
gathering
jabs
koppel
railroad
roasting
intolerance
##ographic
microch
renegotiation
bottles
certific
thirty
materials
maintaining
cosm
ghouta
pocket
thwarted
rehab
participate
librarian
guarantees
skirts
unfairly
indoctrinated
constituent
pulse
rwandan
steroids
stinging
nephe
swiftly
acquitt
slovenian
fabricated
fabricating
douche
grotes
nervously
stamina
objections
sucking
catastrophic
scrubbed
moldova
nasrall
tools
tosses
taunting
colonel
scholar
deadliest
reduces
blacklisted
flexibility
liked
deceptive
shaping
interrupting
inspector
deliberate
deliberately
slaughter
graduate
sympathizer
reconcile
gottlie
nursing
rhode
rhodes
forbes
forbidden
copyright
handcuffs
warships
obligation
obligations
demonstrations
echoes
taste
proclaimed
alleges
intruder
historian
garbage
lengthy
disciplinary
##farlane
traction
##rehens
forfeiture
withholding
##ocrats
overcome
haitians
princes
paradise
guillot
compliment
destabilizing
infiltrate
genitalia
sneaky
firefighters
burkina
revelation
huntsman
satellite
drowned
resurfaces
otto
exceeds
demoralized
crusade
plummet
flawed
paragraph
schlafly
phenomenon
discontin
brokered
convenient
rejoice
purpose
ultimatum
annihilated
hassan
liab
tattoo
therap
android
procurement
sputnik
blonde
blasphemy
caesar
integrity
militiamen
admonishes
assurances
decrease
improperly
barkley
convinced
redistr
earnings
grandmother
volatile
extravag
equipment
reinstating
tabloid
shrinking
hydrogen
bavaria
baaack
dwellers
eulogy
fruit
gaddafi
kerimov
ludicrous
nsfw
rahm
transexual
leverage
blueprint
arbitration
orchestrated
territorial
confidant
supervis
legitimacy
prejudiced
superdelegates
pedestrians
biography
shoplifting
besieged
sustainable
lithuania
circumstances
vladimir
auschwitz
bromance
bhumibol
dlamini
distances
elysee
fannie
giddy
gullible
hodeidah
icrc
jorge
jazeera
jpmorgan
kcna
mastur
mizzou
nosedive
ocean
peshmerga
sesame
sotu
smarter
tiger
valeant
zinke
zakaria
stimulus
obnoxious
clobber
repercussions
unbiased
ungrateful
unethical
alcohol
politburo
enormous
arbitrary
coveted
scapego
orientation
intellect
interracial
guzzling
phyllis
remembrance
airspace
transmitted
sociopath
sniveling
efficiency
truthbomb
blockbuster
salafist
gauntlet
grotesque
gottlieb
011
1md
5th
63
73
79
87
ace
ald
bp
bia
bie
buss
bib
bum
bug
brow
bird
cel
cad
cio
cather
cgi
cackles
di
dre
dot
dop
dap
dip
dared
darre
dude
dawns
dummy
erect
ferr
fict
frog
fonda
gou
gell
gcc
gav
gret
grope
gotten
groc
gretch
gdp
h1
hides
hills
hinder
icc
jin
jib
jumb
kr
ki
kil
kab
kash
kellog
lid
lure
luring
lops
lily
lending
lived
lsd
lira
md
mh
mk
mum
macy
mck
mumb
nr
nd
nud
nai
nude
niro
om
omit
oink
ott
omin
pist
pey
pec
pound
pisc
pkk
pitt
pounded
pink
pumm
paves
pimps
qt
qur
riv
rides
raza
ratch
sed
sre
sash
sights
sows
selle
sized
sque
sisters
tt
tb
tian
tend
tum
tide
tails
tier
tires
tallies
tube
uaw
vw
vic
vil
vie
vast
vamp
verm
vaugh
wiz
wine
wings
weep
waging
wished
woes
wmd
yan
yel
yep
yog
yaz
yanks
yiannopoulos
zan
zing
zings
€1
##uid
##uising
##math
##oj
##oters
##oying
##rik
##rays
##rador
##ricted
##ricul
##exit
##ext
##dled
##dney
##fest
##fra
##fuge
##father
##function
##py
##pin
##put
##pack
##prop
##pool
##picked
##sk
##some
##surgeon
##taking
##tanding
##nk
##nim
##noon
##numbered
##lists
##lles
##liar
##latt
##yas
##yield
##garian
##gently
##ggling
##grapher
##gdahl
##his
##hem
##hoo
##aver
##auc
##away
##aunch
##cor
##cup
##cury
##cogn
##bac
##base
##bren
##bone
##bows
##bats
##bully
##kor
##kick
##kids
##vd
##viate
##38
##wald
##wale
##wilder
##water
##zam
##zey
##zmon
##xes
##jin
##jev
##eri
##erce
##erity
##eracy
##eriots
##inal
##inum
##inence
##inine
##inator
##inians
##inatory
##infeld
##esth
##orc
##oria
##orius
##oreriots
##anol
##oni
##ench
##enworth
##ati
##atre
##atown
##alo
##alid
##alach
##ari
##aried
##inges
tobac
##iture
##itte
##itka
trop
troph
##isal
##isition
##isements
##edia
##edict
##mpter
##mphis
##idy
##idable
##icter
##icular
##icule
##iloni
trunk
trumpers
thron
thread
thumbs
inel
insec
instit
institutional
input
reel
rely
recept
##real
##uspect
##aci
##aso
##asco
##robi
##roiled
##rokor
##rompter
##elo
##elter
##elve
##elines
##tsho
forth
forest
##teren
##terres
##ayev
##illery
theatre
##amas
onion
ongoing
onlook
##leaks
##enthold
##entlessly
deton
ano
##ombo
##omics
##igm
stokes
stalk
stelter
##oli
##olan
##olences
##otov
##urk
##owers
##adopoulos
##christ
##imer
##imag
##etary
##etable
##osures
chong
chains
chocol
chombo
##iva
##ivists
##ivism
shill
shia
shops
sheds
isil
conund
convert
neuro
##irts
##thurt
prostit
bean
bewilder
seed
sewer
sechin
seinfeld
obtained
atom
atzmon
##unted
##andist
##andons
##andria
##ppe
##estation
##estimated
cler
clad
clim
aso
asinine
##uled
repay
repels
reprod
reprim
repression
leaf
lebron
godd
height
heaps
heidi
obamaphone
afl
afar
suits
suck
sport
spice
spare
spox
spars
sporting
##iani
exim
exotic
exasp
exhib
exagger
abst
abide
abiding
abandons
unic
unaff
ungl
unoff
unopp
unilaterally
unyield
unimag
blan
blight
blago
bluster
aftermath
afternoon
##ourse
laure
##opo
alton
alwale
polyg
presiding
agrokor
overview
overreach
twelve
demexit
meal
meire
megan
meathe
memphis
cru
crick
crude
ites
caving
cafe
notified
notices
noticed
##ifix
##artial
##igned
comic
plo
plus
plain
plots
ploy
plastic
clinics
##oda
willfully
encl
ensh
enrage
enrolling
##abis
##abilities
##ibal
##ibus
##ibiot
arious
arrange
##agely
whitey
##rating
outlook
outnumbered
##apers
##apho
co2
coin
coat
disav
disinform
##tersweet
brad
bright
brands
bricks
brink
##ipedia
##ikh
callista
whoops
elements
elects
reson
herald
ward
warmer
scion
scout
scuffle
weary
##astika
haird
haunt
##ensation
pri
boon
boggling
expuls
##earing
refoc
taipe
flock
flows
flipping
flipped
fluid
##okie
medics
northwest
##pture
governing
governance
imit
tease
tebow
courth
##erring
robs
roots
rooting
rookie
sydney
intends
intensive
backdoor
##ecret
##ecoming
muscles
##athon
##athed
bang
grizz
miner
minion
defers
defra
defects
defender
defeating
commies
commanding
particular
manual
manhood
antibiot
mood
mozam
terry
terrific
shower
appalach
coloss
interns
intercept
marathon
load
loos
loosen
loaded
quid
query
quota
downing
fined
caring
cared
carey
cargo
careless
##lamation
accidents
accords
contender
contests
##eprompter
invade
invoking
invalid
paraly
confusing
##rational
guterres
monolog
monarch
mongol
monetary
evans
evict
evades
evolution
##itsky
computers
compensation
gunf
gunned
##bique
workplace
##olding
endangers
detest
detract
superst
##tingly
putz
amending
peoples
butler
butthurt
miller
recovers
debunks
charging
charitable
gett
politicize
soar
sole
emmy
##onders
southwestern
##aha
remix
remanded
clapping
##getown
sana
percen
securities
harlem
underestimated
conservatism
thanked
boring
facto
factories
airs
airways
##rower
makeup
decrees
shoe
shoved
shoppers
islamophobia
islamapho
impending
impartial
sander
sandberg
##rium
registers
swoop
swastika
theme
sexed
retain
retains
relevant
hosting
armaged
armored
urgently
ruler
rulers
discord
discounts
discovers
federation
##isement
stricter
raf
fakep
transit
transph
drunks
susteren
annoying
yours
yourselves
##iliatory
slick
slits
slated
slurs
slander
slipp
barbie
panicked
panhand
##ealia
humb
humble
headway
payout
payouts
payroll
franch
infected
infested
infighting
cattle
exploded
policing
relentlessly
feather
ourselves
embez
emblem
embroiled
broka
brooks
##marks
deadbeat
pots
poop
pointed
props
buster
familiar
##weird
##weiser
setup
smog
smashes
smiles
smokes
##indles
buh
incrim
lethal
israelis
apesh
apocalypse
betty
##heimer
anywhere
anyhow
budweiser
aiding
aided
stark
wayne
sna
snag
denver
deniro
traveler
colleague
acr
aca
acres
roommate
hopkins
bombarded
protestor
murray
shootout
faraci
farenthold
irrational
behold
grapes
timor
timetable
danc
danced
##ustrate
kurt
fireman
chairs
extract
seren
##group
elbow
copied
copenh
funk
funks
##updon
fierce
fiasco
listened
georgetown
concession
conciliatory
pickup
gird
burner
handing
handpicked
slammer
melting
melvin
steer
approving
errors
cubs
drawn
draining
classmates
angst
116
11th
##eleine
##vangir
frets
freelo
servers
servant
edges
declined
alleging
batista
103
106
10th
calais
condoms
condolences
boiling
restive
macfarlane
halting
electing
mattered
believers
stunner
disproves
legalizing
yrc
##boro
lieu
deval
hama
hamburg
##ourne
jailing
females
midnight
bader
homs
homic
homophobia
homecoming
looked
hunter
hunters
##sho
##show
rebuts
questionable
collab
collide
colluding
began
cancelling
rohingyas
spokesliar
fried
crowley
earful
##scott
zimbabwean
madeleine
bestie
liner
hollyweird
divider
requires
londonbridge
curry
curfe
curricul
shotgun
leavenworth
##aughter
balancing
wikipedia
laughably
124
126
hurricaneharvey
hotline
models
basic
gloss
glaring
##ethrower
nature
malik
malcol
malware
##print
finalizes
distress
builders
prosecuted
prosecutions
tripoli
walters
emerged
programme
entities
entrance
artillery
ethanol
affirm
apologies
risking
risky
153
continuing
salivating
capitalists
##parents
thousand
rancor
afrin
providers
horizon
deepening
wray
136
138
132
137
caroline
rocked
frontier
pais
statistics
cyberbully
##glers
##glass
churchgoers
##awan
trained
authorizes
birthers
embassies
dreamed
waitress
outstanding
commenting
councilwoman
crimean
complained
complicated
insurgency
westboro
withdrew
motherf
##wana
boycottgrammys
escort
ridicule
strongman
handsupdon
valedict
carlos
percentage
harasses
reactor
baltimoreriots
junk
##bble
checker
bundys
centr
centrist
davos
vacate
hurtful
misf
misled
misgu
indonesians
directive
directors
influenced
influencing
flees
fleec
educating
educators
magic
##force
##forhillary
controversies
locals
located
maxim
costa
sooner
greenblatt
pleas
sixth
diego
heartwar
embarrassingly
straw
strained
fanboy
fanatics
shortfall
grandpa
grandparents
commissioners
##iasm
explainer
bulgarian
captivity
guesses
powder
savagely
##etically
satisf
grounded
movies
unrel
unrecogn
displace
falwell
landfall
feelthe
favorable
qatari
chao
heroin
hawks
promoted
lifeline
cement
mistreat
##burn
unveiled
enforcing
scammer
petro
petitions
solberg
severe
unlike
assassinating
survival
vanity
crystal
expertly
floating
floats
couch
cashier
rolled
##angement
poorest
propagandist
arrivals
dictate
mcin
lobbies
lobbied
packers
bagged
baggage
droves
##blocks
##theon
accountability
illustrate
outrageously
tenure
buyers
identifying
sharply
sharpens
conflicting
drafting
silently
jerseys
pedo
tanf
tanker
wilders
produces
guardian
gutted
ripping
instability
undersecret
coastal
cannabis
cannibal
newspapers
bowe
bowing
digits
wittingly
escalated
ferc
garage
icke
rambling
tearful
weakened
scorched
bergdahl
sidekick
squat
stockhol
nutshell
##appy
##rolled
resolving
gloria
heckle
eurogroup
appointments
widen
confronting
rosne
slept
disclosures
speeding
derawan
derangement
dressing
faa
faisal
reopened
discriminatory
grabber
papa
papadopoulos
songs
throated
upside
gloriously
villagers
##easy
plantation
effectively
bonus
darkness
warsaw
evils
restaurants
obsesses
shouted
constant
constantly
implicating
implications
whistleblowers
230
linda
odin
tracks
reversing
obliv
cape
capabilities
bashir
iceberg
mockingbird
mentioning
tyrant
wastes
wasting
stickers
clubs
censure
pensioners
sufficient
bloated
privileges
stolten
mouths
stirred
stirring
abduction
abdication
minimize
improving
patrols
##obic
kinda
mercury
sealed
imagines
imaginary
software
advocating
homeschool
350
mrs
wield
disneyland
liberated
implemented
1998
ceremonies
miscal
conducted
festivals
groped
sinking
examining
contestants
associated
ethnicity
keithscott
azealia
bleach
biographer
baiter
fooled
osu
apparel
monteneg
smugglers
moly
molotov
saddam
forgetting
lecturing
unconvin
agitprop
crucified
crucifix
evacuates
manufacturer
bitterness
alongside
manipulation
drunken
ditched
gao
viable
stressing
applause
application
detainee
sweeps
cameroonian
busting
owning
wilson
touches
unsuspect
deployed
thankful
skyroc
skyrock
observation
fantasizing
bittersweet
forgive
stonewall
advertising
advertisements
advertisement
mohamed
mohammad
competitor
withdrawing
occupying
##umpt
andrews
abbott
recovered
switches
switched
terminator
terminals
remarkable
televised
psychotic
subsidy
mirror
rumor
waive
waivers
sprint
sprays
aboard
alternate
novice
monumentally
signaling
magnitsky
bahraini
999
duped
huffpo
pilgr
vandalize
reminding
reminded
boycotted
nutty
permanently
teleprompter
venues
unhappy
unmasked
labeling
sensational
puppets
skinned
contribut
alexandria
bottle
dingbats
diab
diapers
lena
pocalypse
tasnim
overture
discrediting
rampant
rampage
pregnancy
electronics
absurdly
determining
symbols
eliminates
tornado
##holders
universal
morality
celebratory
eruption
hyatt
tsai
tsvangir
bastion
certifies
sailor
steyer
##rahim
spitting
booty
booted
intensify
liberties
recipient
barbuda
petersburg
prospective
ghouf
gerald
habitual
obviously
blessed
exploits
grenades
logical
collected
moderators
distracted
dissenting
manipulating
dubai
porous
pulp
reignites
astron
astana
acquits
acquisition
contradict
tyrannical
recruitment
fundamentalists
bureauc
wanna
wannabe
overdue
disqualifying
oppressive
croatian
automakers
automatically
predictit
predictions
increasingly
correspondent
dimin
sodomy
##xistent
upgrading
definitely
defunding
manhunt
industries
harboring
substant
reducing
reduced
salvage
satanic
loyalists
sacrifice
593
ayotte
average
averting
shapiro
concede
suppressing
ordinary
mogul
assimilate
helmets
perverts
spewing
macedonian
profanities
greeted
applaud
diagnosed
plagiarism
fulfilling
gentiloni
nurses
selected
wyden
##enhower
spells
breathtaking
outpaces
flowers
2021
confiscate
handcuffed
boundaries
gallery
##gelo
degrees
whitman
proclaims
unwanted
alleviate
aligned
enthusiasm
##ecessary
accelerated
historical
authors
oligarchy
pummeled
tamir
##rehensive
converge
procedures
procedural
exemption
adjustment
haitian
grasping
guillier
compliments
maoist
destabilize
retracts
genitals
rapidly
revelations
satellites
pivotal
bothered
feces
nonexistent
##culated
tramps
chronic
cloaked
downgrade
carnage
carnival
inversion
inversions
militarization
imperium
preference
balkans
outsourcing
bolivia
suburbicon
baffles
cdc
dianne
fetes
hindu
raytheon
tussle
tiffany
vocal
wrapped
anxiety
spouses
unnecessary
unravels
tweaks
scumbags
mediator
turbulent
appropriately
quadru
inventor
ammosexual
imprisoned
descend
preachers
convulsions
chevy
1970s
misunderstanding
chappaqu
installed
sidewalks
jewelry
brainwashed
disappointment
telecom
wheelch
scholarship
gentleman
cigarettes
vaxxer
safeguards
cassidy
corsica
ebola
hayes
kamala
lucifer
mickey
mascul
wagging
demented
chapters
prohibit
seething
##street
unintended
unattractive
albania
flamethrower
allergan
interrogation
marxists
loophole
evalu
decisive
desecrated
payoffs
poetry
incentives
somalis
devotee
cancellation
summoned
sarcastic
chechen
predecessor
interpreter
buckingham
indefinitely
rothschild
accommodate
dunham
dignity
eisenhower
nabs
yacht
zionist
##370
##while
tombstone
tremendous
thickens
rewrite
abuser
enquirer
cozies
hazard
botswana
milestones
scheming
harvester
cordray
barricade
smirk
buoyed
password
virtual
frisk
earlier
hardliners
furniture
romanians
rockefeller
magistrates
squeeze
disagreements
accomplice
microchip
certificate
nephew
nasralla
liability
redistribution
scapegoat
intellectual
sociopathic
1mdb
biafra
bieber
celente
catherine
dotard
dapl
fictional
gouging
gellar
greta
grocery
gretchen
jinping
jumblatt
krg
kashmir
lopsided
mh370
mumbai
nairobi
ottoman
ominous
pistorius
peyton
pecan
piscopo
pummels
riveting
srebren
sasha
selleck
ttip
vaughn
wizard
zanu
##zeys
##jevich
tobacco
tropical
trophy
ineligible
##tshoot
onlookers
conundrum
neurosurgeon
prostitutes
exaggerated
unaffected
unglued
unofficial
unopposed
unyielding
unimaginable
blagojevich
laureate
alwaleed
meirelles
meathead
enclave
disinformation
expulsion
taipei
grizzly
mozambique
paralyz
monologue
superstar
islamaphobia
armageddon
slippery
embezz
brokaw
copenhagen
curfew
curriculum
malcolm
handsupdontshoot
misguided
heartwarming
unrecognizable
feelthebern
undersecretary
stockholm
rosneft
stoltenberg
montenegro
unconvinced
unsuspecting
skyrockets
skyrocket
tsvangirai
ghoufran
srebrenica
02
1b
56
98
aur
akk
aunt
aung
a38
bm
bs
bers
bits
bong
biting
bumbling
bitten
bacter
binding
ct
cud
cess
cod
cents
cyan
cuck
cale
cinem
dubl
dran
dous
dine
dry
dory
dere
dated
dys
doses
daring
dway
dashes
damp
dyl
dads
dunk
dawn
dread
ditka
eer
eich
eying
eats
erection
fs
fain
fry
fck
fount
fades
fta
fuk
fogle
fumes
fizz
faso
g4
gil
gam
gand
gour
gend
gem
glam
gma
gears
geller
gamble
golan
hr
hk
hans
hott
hinted
hasty
hanged
hodgkinson
ied
icy
iphones
jul
jub
jess
jade
jind
jeep
juster
jamb
jealous
km
kor
kle
kom
kard
kumb
krug
kitch
kamp
kitt
kinds
krist
lest
lod
lous
lips
laced
licking
liable
mish
mald
mma
merry
mouse
muzz
ng
nis
ned
nash
nose
nico
oro
oak
oss
osteen
ousts
pion
pess
pile
pits
pai
pager
piles
pacts
pga
pokes
peek
psd
ponders
rs
rar
rous
rivers
rang
roles
sr
si
sag
sass
sistan
sins
sult
sval
sidel
sasse
sipping
sgt
tj
tes
ting
tib
tire
tiss
tup
ticks
tatar
tmz
ud
uly
uigh
urug
upper
vou
vod
vps
wf
wv
wis
wack
wrat
wals
wides
waa
woos
ym
yea
yawns
ze
zinger
##uil
##uly
##uised
##map
##mick
##mons
##oh
##ovan
##roup
##ridge
##eur
##dat
##dued
##dev
##daughter
##fc
##fed
##face
##fold
##facts
##founded
##fighter
##pal
##pill
##pad
##pie
##post
##power
##pired
##piece
##pread
##sher
##sons
##sfeld
##slist
##tal
##tos
##tors
##tards
##trey
##tivists
##no
##not
##nament
##late
##lives
##lights
##lical
##law
##yo
##yd
##yans
##yard
##gra
##gap
##gence
##gard
##gade
##gulation
##green
##gmat
##hat
##hle
##hall
##hawks
##hodgkinson
##aways
##cat
##cot
##cos
##card
##cious
##cakes
##cops
##crap
##curate
##bu
##ben
##but
##bish
##bings
##bury
##bourne
##kas
##kowski
##kirts
##vic
##vfe
##voting
##15
##17
##will
##wns
##wits
##wrote
##zo
##zel
##zone
##zheimer
##xx
##xite
##4hillary
##jak
##qing
##erts
##erious
##erini
##inn
##inth
##inks
##inals
##inance
##espie
##oro
##ora
##orus
##orian
##orious
##onious
##oncops
##enter
##enwald
##atized
##atively
##atoes
##alie
##aljak
##aros
##arks
##ingers
tol
touring
toms
toled
##itif
##itness
##itively
trails
trades
tranny
##isly
##edd
##edger
##edited
##idency
##idote
##icia
##iciaries
##ilett
trumping
trumped
trumpkins
trumpocrats
thorn
thaks
thaw
thiel
thieves
inac
inade
inches
inmate
inhuman
rebo
rework
recla
reauthor
rewrote
##regn
##reads
##acry
##asel
##aside
##asong
##rovers
##roaches
forc
fores
forty
forming
##eoff
##eoty
##terms
##terdam
##illas
theatr
##ami
##amen
onstage
##leaf
##leaders
##entment
##entions
##omach
##igos
##igma
##igault
stut
steep
stoke
staging
stoned
stym
stumble
stoning
staunch
stilett
stomach
##otp
##otle
##urance
wheat
##adin
##aky
##cho
##imates
##imnot
##imonious
##etoro
##osal
chin
chop
chast
chern
choked
chills
chatt
chump
chorus
##uties
##resolved
##vering
##verified
shed
sheep
shilling
shannon
shreads
isa
conan
concept
conclud
negl
##irie
##irmed
##thur
##isti
##istance
##istries
prods
prostate
prolif
sayya
beings
sect
seism
searing
severs
seaf
sevent
seaside
obit
obrador
atf
##unts
##unition
##unami
##andra
##andise
##ppet
cling
clout
clues
cluster
##ulant
repress
repeals
reprehens
leary
gove
heed
heir
heist
heap
heath
heather
obamaphones
affl
spenc
newbor
newborn
##oree
exists
exha
exterm
exorc
presumed
abraham
##star
##stab
##stock
##storm
##ubbing
unel
unice
unsc
unmo
unwa
unvet
uneasy
unresolved
unverified
bling
aftersh
##ourg
lamp
lags
##kster
##ussion
##ussia
##opia
alter
alps
alph
alzheimer
alicia
politely
politif
##iests
hillarystreet
##endar
aguil
##ounce
overly
overru
overcoming
overcharged
overnight
twists
twenty
##ellers
##ellate
demographic
mein
mechan
cripp
crashing
watchers
item
byst
byotp
##esson
notorious
##ranged
comin
sensel
plun
plates
plaster
plague
plenty
clint
##odies
willy
justifies
enra
enhan
enjoy
enlists
##abad
##abouts
##abani
brew
breasts
brexite
arder
arthur
arranged
##umu
##umatized
adj
adul
aduly
##rata
##assion
donuts
outlet
outlaw
##aphor
attaches
attitude
##ghai
##gherini
coy
cobb
coherent
covfe
wording
diseas
disbar
disob
##terson
##ousine
brakes
brits
brushes
bruising
##iker
elev
reserved
resounding
resentment
heralds
herridge
##antom
##antrovers
upton
uphe
scul
scant
scree
scann
scares
scatter
##emate
##emele
weasel
haul
havens
haunted
##ensed
##ensitive
##ansman
statehood
statewide
joan
##ishly
prud
praljak
priests
boards
boasted
expression
expropri
dole
doable
reference
refute
referring
tav
taj
flux
##irez
medals
cannes
cannon
blackmails
governorship
imbal
tep
teed
tefl
oracle
orrin
roil
roam
root
roils
##ockey
newsflash
backwards
backped
backbone
backyard
backstab
noble
nooo
##aval
##ecd
##action
##actions
mayadin
musical
##athan
##athsome
allig
alluh
##ardier
##liminal
grim
grateful
grisly
mini
mines
minsk
ministries
define
commem
commends
##icker
parting
partition
manus
manure
manner
maniac
manchin
manigault
antidote
consular
conspired
whyimnot
moyo
mogherini
terribly
turnc
##ruff
##issary
apps
appellate
eugen
sahar
libyans
206
208
20th
2030
colts
interrupts
interactive
##ryo
mars
marked
margar
talent
talabani
loon
lovers
looser
loading
looters
loathsome
quant
quarre
downed
terrorize
terrorizing
finale
finishing
##ernacle
accounting
miles
miloy
contam
contention
contained
context
##yane
tellers
##adej
##retion
##ashian
##clist
##clusive
##classified
invaded
paras
parodies
indec
confuse
conform
confuses
##ushima
gupt
guided
guev
monks
monstr
oped
depict
deposition
deputies
evening
evading
winston
##oga
philly
phantom
compost
comprehensive
gunsh
sheer
endure
immoral
detour
amster
amigos
butter
assumes
asshole
cnnbl
topic
topics
secretaries
politicizing
sob
sober
soetoro
emig
emissary
##ittery
liberalism
##ondent
##ahon
visions
visibly
remands
remote
claw
clause
clawed
peril
##achurch
void
maio
##ysburg
harming
harsher
spews
insight
insuff
insensitive
factions
##azy
rightist
rightward
airing
foxcon
oppos
decimate
decried
deciding
awoke
knight
shoving
missou
islamophobic
islamabad
impregn
##quer
##quate
##quista
advanced
##rix
regains
regrett
regroup
swims
swindles
pollack
investing
desk
delrahim
retraction
armor
armour
armada
corro
coretta
corrine
##ingshot
urgency
forex
millionaires
##onged
discourse
strips
rave
raunch
raided
maternity
matrix
transports
schoolchildren
schoolgirl
drake
dredger
surreal
needle
christina
citations
candles
slack
slice
slipping
sludge
slingshot
bares
barking
barney
barrel
hume
borderline
posture
franks
frances
infant
generic
explore
exploring
opener
relays
reliance
highs
##elson
nyu
feast
prey
preibus
embryo
deadlines
deadbe
michel
prophet
buses
freefall
smoked
smelt
smells
childhood
holt
pew
pean
incited
stopgap
nowhere
bethle
##kei
catalonian
masses
massively
belitt
##health
hurling
hurled
hurls
majorly
idol
##ueling
departments
sniff
snipp
snags
denzel
administrator
hoped
bombardier
powerhouse
despair
despondent
tarp
panelists
murkowski
irr
behave
graves
gravey
gravely
trek
treating
trexit
treats
dangers
chairwoman
serbs
elon
elaine
facial
pales
##ups
listed
concussion
raddat
perfection
businessmen
efficient
girly
stepm
neverfor
nearby
burr
burka
bursts
melted
melbourne
steam
steele
steven
flagrant
patron
patience
patterson
paula
exclusion
greatly
greatness
internment
ers
ern
erasing
erases
controllers
happiness
hitmen
anglo
angels
111
114
yorker
##maids
revising
##tepped
##bani
convicting
teaming
corrupted
editing
editors
declining
resignations
ruff
ruining
batch
batters
batteries
104
109
102
califf
calpers
calendar
giveaway
publicity
publications
gloom
condole
restricted
forceful
independant
halted
sonic
##angle
dispatch
disposal
useful
viewed
goodall
goodies
legalized
devout
devise
hamill
midst
midwest
midterm
midterms
subj
subdued
subliminal
badges
msf
journey
rebound
holdout
mosby
beggin
frauds
screens
framed
earns
earners
autos
maines
crawl
globalism
fuller
##ologist
scandalous
madame
whereabouts
radicalism
radicalized
chobani
linking
watered
divid
divert
dividing
hype
bankrolling
egyptair
audacious
penet
penny
skilled
californians
londoners
curious
curbing
curiously
filth
filings
films
filmed
chef
cheaper
chewed
##ocracy
babbling
wikileak
thinkers
launchpad
breakers
128
122
persona
yemenis
grey
modrik
basically
baskets
furnish
glimp
##rooms
duh
duly
natalie
malian
malley
##prise
rapefuge
distort
buildup
prosecuting
triple
##tawa
celebrated
wales
wallets
muppet
memory
cycle
thuggery
brazen
brazenly
##venes
entrench
artific
##ursion
affirms
argue
argued
risked
townhall
wrongly
wrongfully
trove
pragmat
prairie
turnover
##ported
talkers
italians
100per
salad
salman
eastwood
flashpoint
cleese
defendant
defendants
limo
limiting
limousine
toughen
provisions
stunningly
juven
wireless
133
130
135
##elcome
pathological
2003
2002
legislate
cracka
horrors
horrified
statists
recording
winger
dangerously
dangerousness
contrary
authoritarian
superior
superfund
estimates
##inationals
outskirts
##cript
councils
##centfed
complicating
pledging
casinos
bloods
replacements
answering
answered
responsibly
escorting
jameshodgkinson
##mersant
untr
untou
untangle
creators
husbands
ridden
firestorm
valid
##uctive
##ballgame
inject
injure
injuring
injects
injection
injunction
camerota
avoided
weighed
inflict
updates
conspirators
kneed
cenbank
congressionalbase
informs
hallmarks
guilts
sanctimonious
treasurer
delaying
davao
takata
##ukayev
tommy
145
146
14th
misuse
misstep
microw
stoops
maggot
uncons
temple
50s
stabbings
technic
costco
costello
##ihito
greenfield
bullock
crosses
crossers
boarding
metaphor
oversh
oversees
overstepped
strains
fanatic
shortly
shortens
attendee
attendance
attendees
grandma
grandkids
dumbfounded
portion
isna
searches
bulk
gasp
negotiates
negotiated
comedians
rescind
argentinians
renegade
godfather
prevents
prevention
satire
franklin
iowans
unreported
accidental
concerts
falter
landlord
favoring
favorites
favorability
greeks
heroic
primaried
responders
promotion
lifer
lifers
positively
unpresident
enterprise
cheerleaders
fairly
mistakes
enforced
scamming
webster
interferes
188
petulant
solo
##bto
assassin
rowdy
##daniel
##walk
connects
floors
flopped
representation
stormed
chuckles
unfolding
births
birthplace
successes
domain
dominate
dominates
hobble
formation
formulate
processing
clarifies
caucuses
scrip
explosions
disturbed
mcfar
mcdaniel
unrealistic
volumes
jacket
benefiting
beneficiaries
engines
historically
tenant
174
narco
purges
purged
purging
steinme
214
21st
tortures
##anooga
envisions
massacred
bothers
peddle
truckers
creeps
doorstep
completes
fueling
fueled
yellow
##attack
utopia
underscore
arena
dissolved
remaining
bowie
digit
tributes
tribune
troubles
quicken
documented
fitness
multinationals
rams
ramadi
ramirez
tantaros
roadmap
creepier
226
dodger
dodging
peruv
squads
squatter
meanwhile
respectable
disabilities
surveys
landsc
heckles
priorit
eurofighter
eurozone
devastates
appointees
diners
machado
widows
cleaner
cleaning
cleanup
kyle
sleazy
##fein
##incts
restriction
personalities
honorable
verhof
chanted
discloses
designates
denouncing
behaving
develops
vacationing
kirst
pipelines
stampede
disrupted
disruption
awkard
discriminating
strategize
ncaa
nazar
villa
wreaks
leech
jointly
performs
laughingstock
401
fdr
fatally
toned
woody
woodruff
strangles
bonfire
##ezza
dogg
masri
santos
implicates
450
obliterate
warrantless
colorful
circulate
scaling
recruiter
deleting
correctly
jordanian
census
censoring
piggy
suffered
harvesting
horrifically
magazines
splitting
congrats
congratulate
whoopie
musicians
submarines
fascism
mouthpiece
vowed
abdicate
moochers
accompan
improves
baghdadi
fresno
mlb
nhl
simmons
sponsoring
assisting
sickeningly
broadcasts
broadcasters
encourage
sleepers
kindness
mercy
merger
aggressively
imagined
inspires
inspections
advocacy
temperature
temperament
cartels
persons
podcast
rivalries
liberians
1991
1993
1990
1996
70th
bikini
niceattack
premature
sparking
ensuring
embraced
conducting
congratulatory
freshman
cornell
cornered
learns
subscript
##opoulous
contestant
beckel
beckham
260
azar
bleed
bleak
deduct
obstructionist
pirate
pirates
taping
taped
coordinator
harmless
motorist
motorists
evacuating
90s
ringleader
inept
archa
archive
archived
weirdest
textile
textbook
disappointing
akihito
gaggle
hideout
roundly
viagra
##ovs
##ovich
projection
betsydev
blindly
laptops
applies
applications
detaining
wondering
freakout
battisti
touched
unserious
normalize
normalization
observations
technique
fantasize
##waroncops
##indered
forgiveness
isolating
spectacle
advertises
advertiser
boxing
contacting
compete
competitive
weaponizing
surprisingly
upsetting
occupied
olympian
laying
shelters
shelves
exceptions
quarles
terminally
landslides
psychological
nikkei
##points
clowns
barnicle
brawls
revamped
screwing
mcmahon
narrowed
renames
rumsfeld
waives
beheads
##ulsive
complying
magnate
branches
branstad
rifles
vandalism
##owingly
beachfront
spoil
spooked
##abulary
reconquista
smartphone
frighten
frightened
boldly
mutiny
ousting
teleph
unhindered
labeled
twisting
fledgling
imams
performer
puppy
stephanopoulous
divorced
contribute
demonstrator
hijacks
hijacking
etc
hubbard
leno
tabernacle
obamaswaroncops
discredited
peacekeeper
nevertrumper
modernization
absurdity
determination
similarity
similarities
adoption
eggs
lyons
closures
queues
genocidal
dismantles
strongholds
spectacularly
ftc
hugs
hugging
tsar
tsunami
objectives
objectivity
cronyism
regardless
approached
unclean
renegotiations
renegotiated
scrutin
obstructed
lutheran
bastards
cockroaches
khantrovers
sighted
chickens
reciproc
catching
currencies
microphones
engineering
undoing
bucket
darling
hudson
habits
picnic
forecl
stripping
shakespe
exploiting
grenade
grammar
participation
participants
participated
columbine
marshawn
belonged
restraining
specifically
moroccan
stomping
championing
manipulator
durham
dubs
dubious
dubbed
gestures
gestapo
josh
mortar
pulitzer
stereoty
traumatized
astounding
tampon
tampons
intentions
airstrike
significantly
tanzanian
tribunals
gillespie
ghettos
wannab
wannacry
necessarily
prosperity
obtaining
overdose
endangering
misspoke
dramatically
homophobe
automated
silverman
overseeing
scrubbing
broadcasting
uzbekistan
375
creamed
dimon
fuelling
tossed
dishes
syndicate
hashtags
detective
buffalo
moronic
vaccination
flexes
entertainer
disappeared
overturned
538
averts
bubb
czars
hailed
likens
pouring
rotc
rotting
rotterdam
theresistance
climbed
ashes
lapse
reflect
ordeal
ordinance
consensual
interrupted
bargain
bargained
privatizing
feminism
shielding
plagiarized
plagiarizing
850
achie
faults
rattle
select
titans
wipes
woohoo
initially
chipotle
shattering
conclusions
enablers
breathes
arsonist
output
outpost
broncos
2025
downplay
confiscation
precision
promoters
copycat
electricity
upholding
persecuted
worships
endangered
bounty
echo
merriam
tasteless
stanley
whiteness
chalkening
unknowingly
blankfein
residential
jokingly
accelerate
transferred
reluctant
freezing
restrooms
marklevin
1963
1968
1980
1986
mistrust
rollbacks
scrambling
infuriated
lengths
paramilitaries
disciplined
480
biological
duggar
klux
klansman
mowed
masterm
ravaged
razor
razed
sirleaf
tammy
tangles
##debate
##armes
stalin
stalemate
##ocratic
cabos
princess
carrired
carriage
paradigm
maoists
implying
infiltrated
portrayal
exceptionalism
cocktail
resurface
monkeys
dueling
hagerty
laments
ottawa
pepsi
vindicated
toyota
videotapes
videotaped
unseat
unseal
megachurch
crusader
combative
whitewashes
downgrades
paraguay
schlonged
phenomenal
prefers
sketchy
balkan
glitches
outsourced
purposes
ultimately
avengers
cdu
csu
dwind
dwyane
diane
essential
hindus
prank
prankster
vocabulary
wraps
spousal
exonerated
unravelling
scanner
scumbag
organs
backtrack
backtracks
consulted
turbulence
marginal
ammunition
knifeman
imprisoning
swimming
coroner
feverishly
pumping
stealthily
110k
craigslist
chevron
chappelle
deceitful
sidewalk
brainwashing
lesbians4hillary
telecoms
cigarette
vaxxers
astonishingly
aarp
bestseller
bungle
bungled
daltrey
gibson
hwasong
hustlers
manson
nullify
pierce
puzzle
vendetta
##stadt
dislike
rooftop
deflect
deflects
recapture
delighted
retroactive
rapport
snooping
grapple
grapples
empowerment
redacted
skulls
absentia
trademark
trademarks
instigate
instructions
deteriorating
occurred
persuade
psychiat
psychiatr
pizzagate
methods
enthusiast
brooklynhillary
ahca
clyburn
dolt
gimmick
hasten
kisumu
lbd
mantle
mashup
ryun
vessel
zambia
##friday
thoroughly
inherit
stubborn
shanghai
proxies
unstable
unjustly
demoted
enlistee
disorder
disbanding
elephant
reservations
scratched
anticipated
appreciation
marcus
airplanes
decertify
explicitly
peggy
snitches
elitist
facilitate
effigies
revisits
litigation
homeowners
filipino
valuables
eyewitness
martyrs
unfortunately
dominican
stockpiles
merchandise
gatecrashes
liquid
cosmetic
acquittal
douchebag
guillotines
discontinues
conveniently
therapy
extravagant
fruitful
supervisor
masturb
clobbered
0112
busses
biblical
browns
darrell
jibe
kabila
kellogg
omitting
pittance
quran
sedition
tianjin
tumult
vermont
yelp
yogurt
institutions
relying
reception
chongqing
chocolate
climbs
reprimanded
leaflets
heighten
exasperated
blanket
crickets
enshr
bradley
refocus
imitates
courthouse
particularly
antibiotics
appalachia
colossal
intercepted
loosening
gunfight
detractors
gettysburg
transphobic
franchise
dancers
extracting
homicide
collaboration
affirmative
cyberbullying
##glasses
valedictorian
fleeced
maximum
satisfy
unrelated
mistreatment
cannibalism
squatting
homeschooled
wielding
stonewalling
pilgrims
bureaucrat
substantive
masculine
evaluating
hazardous
paralyzed
embezzlement
aurora
a380
bmw
berserk
ctbto
cesspool
cyanide
cinema
dublin
drank
doused
deregulation
dysfunction
dwayne
eerily
eichenwald
fainting
fountain
fukushima
gandhi
gourmet
gendarmes
julius
jessica
jindal
jamboree
koran
kommersant
kardashian
kumbaya
krugman
kitchen
kampf
kittens
lodges
lousy
ngos
nashville
nicole
oroville
oakland
ossoff
pione
pessim
ranging
sistani
sultan
svalbard
sidelined
tesla
tupras
udate
ulyukayev
uruguay
vodka
wisdom
wrath
walsh
widespread
ymca
zeid
##votingforhillary
toledo
thaksin
inaccurate
inadequate
reboot
reclaim
theatrics
stilettos
chernovich
chattanooga
negligence
proliferation
sayyaf
seismic
seafood
seventh
repressive
reprehensible
spencer
newborns
unicef
unscathed
unmoved
unwavering
unvetted
politifact
hillarystreetart
aguilera
overrule
mechanism
crippling
senseless
plastered
enhanced
brexiteer
ardern
adulyadej
covfefe
upheaval
scanners
expropriation
teflon
backstabbing
alluha
whyimnotvotingforhillary
turnco
eugenics
margaret
quarrel
miloyiannopoulos
conforming
guevara
monstrous
gunshot
amsterdam
cnnblack
insufficient
foxconn
impregnated
regrettable
raunchy
deadbeats
bethlehem
graveyard
raddatz
neverforget
condoleezza
modrikamen
glimpse
rapefugees
100percentfed
congressionalbaseballgame
missteps
unpresidential
mcfarland
steinmeier
verhofstadt
subscriptions
betsydevos
telephone
khantroversy
shakespeare
100percentfedup
03
2g
2a
3am
4m
aj
aer
ais
aig
aly
apt
aard
aya
aval
aires
aetn
aero
aesth
bw
bil
bak
bim
bour
bout
bds
baul
bands
bones
bimb
bipl
bae
bpd
binary
bakers
ci
cv
c9
cus
cres
cth
cul
cakes
cuz
cower
cind
cbc
cps
cpr
cults
cinc
cto
coca
cede
ceding
cibol
cuffed
cache
dd
dj
dort
drat
dives
dame
dorm
dah
dims
dull
drow
dough
dye
dining
dented
dpd
dipped
dunks
dahl
drey
dudes
dvd
ez
eid
ero
eust
eager
eighth
fb
fis
fag
ferv
fade
fred
fending
fitch
fides
feld
fpl
fouts
frump
fpo
fumbles
fabul
fumbling
fingers
gy
gg
g5
gq
ger
gon
gass
giz
gina
glim
grem
gaw
gyn
ggas
gmo
grov
genders
gamb
gbag
gushes
hs
hi
hb
hin
hts
hak
hir
hul
hive
hens
hok
hush
hicks
hano
hilton
hague
hesh
hiking
hogan
hinges
hoda
hockey
iw
iom
ibm
iata
jk
jal
jit
jod
jbs
jug
jedd
jemele
kg
kow
kag
kap
kree
kry
kins
kris
kaya
ln
liv
lian
lall
lend
lite
lip
lakes
litter
lull
lender
lures
lody
lama
lords
lenders
listers
lament
lansing
luh
lizz
lisa
livel
mg
mak
mud
mates
mere
moss
mama
muted
muds
mumbles
ner
nust
nigh
nass
nile
niss
nure
nike
nights
noss
nause
nimb
nays
naps
nwa
nader
nudge
numbs
nanny
oic
ole
oul
orom
owe
osp
oecd
ps
pg
pi
pes
ping
pas
pand
pse
pian
pub
pies
prat
pare
pah
pair
pong
pye
psa
pestic
pounding
pouting
qa
rb
rim
rour
rica
rations
rues
rup
rih
riles
rational
rink
ronna
ratt
rushing
rented
raked
rumbles
rumbling
rattled
rangers
sv
sid
sow
sop
sib
sap
sails
sands
sull
sord
sony
sizes
szy
seld
sino
sounded
sba
siding
sorting
sizable
sikh
tin
tut
tase
tors
tting
tug
tuck
tless
tonn
tenn
tilt
tipped
tinge
tisa
tpa
um
uic
uyg
ufo
ufc
vr
vest
vass
vik
vox
vood
vying
vang
vander
vista
vandals
viva
wm
wo
wd
wn
wres
wand
wuss
wran
wreat
wakes
wret
wah
wager
wrap
wanes
xmas
ye
yee
yug
yucc
yield
zh
zb
zur
zell
zap
zbc
zize
zakh
zoning
£1
##uy
##uan
##uers
##uart
##uard
##uuge
##uwe
##uang
##uven
##uahu
##uaries
##mm
##mi
##mes
##mor
##mus
##may
##mith
##mod
##mens
##miss
##mund
##made
##mines
##mont
##mosis
##oa
##oz
##oir
##oint
##oises
##oval
##oitte
##oidable
##rou
##rally
##rition
##rase
##rical
##rift
##e0
##ex
##eor
##eed
##eter
##ews
##ezy
##eurs
##ehouse
##eouf
##dore
##dick
##dance
##dlo
##dened
##dler
##diction
##deme
##fi
##fing
##fts
##fol
##fuss
##fax
##filled
##felt
##peo
##pot
##pain
##pour
##pled
##partisan
##pered
##peak
##porate
##sed
##set
##sth
##sanders
##saken
##tur
##top
##tron
##trow
##tale
##tics
##tuous
##now
##norm
##nya
##nistan
##nifer
##nett
##nowled
##nugent
##lar
##lest
##lock
##lav
##lates
##long
##locks
##lville
##licates
##latch
##yel
##yth
##yman
##ygen
##gal
##gow
##gly
##gie
##gger
##gaz
##games
##gender
##gled
##grav
##hu
##hin
##has
##him
##hop
##hec
##hard
##hep
##hats
##haps
##hmo
##holds
##handed
##hito
##hyd
##aore
##auts
##auch
##auds
##cs
##car
##cel
##com
##cass
##cuts
##crow
##cience
##cauliffe
##creen
##iq
##iour
##iency
##iya
##bn
##bz
##bj
##bot
##bain
##bok
##berr
##bound
##bons
##bach
##bines
##blin
##belly
##bai
##bring
##bilt
##bannon
##kh
##kul
##kie
##key
##kru
##kah
##kull
##kles
##kner
##kicks
##killed
##kellog
##kagate
##vi
##voc
##vie
##vity
##vah
##vsa
##vark
##veston
##19
##0k
##0ul
##won
##wid
##wre
##wow
##wick
##waz
##welcome
##zh
##zale
##zanne
##zealous
##xis
##xed
##xus
##xsc
##xpl
##49
##45
##ji
##jan
##jam
##jee
##j20
##jumps
##2k
##25
##qq
##erter
##erra
##eries
##erica
##erating
##erilla
##erbai
##inite
##inely
##inisc
##inately
##esy
##esc
##esch
##espass
##oress
##orters
##orage
##orns
##orists
##orah
##orwe
##orleans
##origin
##anor
##anas
##anig
##analy
##onial
##oney
##onfl
##onium
##onomics
##onchrist
##onounce
##eng
##enat
##enos
##enters
##enact
##enberg
##enko
##enital
##enburg
##engen
##enyth
##enanig
##ato
##atro
##atra
##atious
##atner
##atius
##atomy
##ativism
##alities
##aloo
##alogy
##around
##arling
##arthe
##arital
##arova
##areness
##ingo
##ingly
toes
toom
topp
tock
tooth
toby
##ita
##itore
##itans
##itism
##itzy
trog
trims
tricks
traps
traces
traced
trink
tricking
tripped
trespass
##isible
##iseration
##isdiction
##ispered
##edith
##edonia
##mple
##mptuous
##idis
##idav
##idays
##iddick
##icits
##icament
##icmont
##ilic
##ilian
##ilib
##ilating
##ilcot
trusts
trucul
trumpe
trumpism
trumpdom
trumpcup
trumpleaks
trumptards
trumponomics
theo
thres
thru
thys
thong
ink
inad
institution
inability
inactive
inhum
inclusive
recy
reels
reint
reimb
reyn
reza
reapp
reenact
##reational
##acul
##acula
##acuffs
##acola
##asm
##asant
##asants
##roft
##roke
##roof
##rooge
##eler
##elight
##tshar
forens
forked
forging
forgery
foresh
foreman
forsaken
##ayers
##illi
##illac
##illusion
theorists
vide0
##amn
##aman
##amir
##amists
##amco
##amilton
ons
##leak
##leum
##lements
##enture
##entrump
dea
deact
dehuman
dehyd
anbar
anatomy
##omet
##omous
##omime
##ommits
##ige
##igs
##igate
##igue
##igley
##igitte
stow
stif
stap
stare
stav
stard
stings
staring
stats
stoked
stances
strol
stoking
stashed
stuart
storage
##olul
##olve
##olical
##olese
##olesome
##olitan
##otation
##otism
##otely
##otty
##otyp
##urally
##urai
##urfing
whir
whore
whipping
whiner
whispered
wholesome
##owment
##oweth
##owitz
##adell
##adians
##adicated
##aki
##chat
##ching
##chran
##china
##chang
##chahontas
##childs
##chemy
##imler
##imani
##etes
##etite
##etting
##etted
##etical
##etected
##ersary
##osity
##ositions
##osopher
##oslav
chate
chide
chah
choss
chave
chord
chips
chatter
chih
chlor
chimp
chunk
chadian
chamb
chested
chilcot
##utton
##uttle
##uttal
##utonium
##ivan
##ivile
##ivates
##ivable
##ctomy
##atee
##iao
##iah
##iages
##iavo
##reshing
##residency
##verick
shy
shit
shine
shav
shave
shaf
shaqu
shuffles
shiva
shenanig
shatner
##lyak
isle
isik
##acker
##ackled
##ackets
##acknowled
neal
nexus
##irce
##irism
##irium
##ircles
andy
##thaf
##thamilton
##geyman
##ceived
##isting
##istent
##istock
prolong
beam
beast
beard
bearing
beaches
seuss
seated
seating
sections
seeds
sekul
obtains
atrium
##unu
##una
##unich
##unished
##andling
##seat
##seff
##sexsc
##estag
##estors
clam
click
cliff
clips
clashing
clitore
obamerica
ashe
asians
aslan
aspects
##ulent
##ulating
##ulhu
repris
repaid
repeating
repulsive
##rax
##raj
##rail
##raining
##ravel
leases
goad
gofund
goblin
hem
hein
heft
obamaites
##aines
##icants
##icancon
suis
suzanne
sumptuous
##ieck
##vebe
spore
spots
spilling
spouse
spelled
spawn
spani
spawns
spouting
##iang
##ianross
neworleans
exert
exemp
exiting
prescr
preserving
prescription
presumpt
presenter
##alls
##allow
##allax
abound
abounds
abram
abnorm
aborigin
abetted
##sto
##sty
##store
##start
##stick
##mering
##eem
##eeter
unb
unin
unav
unru
unrem
unple
unful
unann
unident
unused
unste
unaf
unfor
unsp
unimp
unga
unsee
unification
unchar
unbal
unique
uninform
unblocks
unclassified
unacknowled
unravel
bled
blur
bland
blaz
blenders
blvd
##udges
##udely
##udonym
##udovs
##ours
laur
labs
##opter
##opers
##oport
##opolitan
alg
alike
alinsky
alchemy
polio
politr
##iesmatter
hillarycare
hillarygate
##endable
ags
aga
ages
agnes
aggrav
##ounted
##ounced
##ouncing
##iteers
##itekh
overfl
overreg
overpill
overzealous
##ublicancon
twas
twink
tweak
tweeter
offense
offences
offstage
##ellin
demise
mep
meter
mecc
meerk
meps
russiam
##ortionate
cram
crust
crib
cried
crips
criter
crumble
cranes
crudely
itv
cages
caved
##romney
##essed
notion
notre
notable
noticing
##ifist
##ifacts
##arted
housekeeper
households
##eye
##ignant
##igniew
##ignificant
hissed
combin
comcast
senility
seneg
pla
plow
plumb
plowed
plutonium
clinches
##ailing
##odities
wills
willful
##ighty
justify
enm
enigma
##abc
##about
##aborate
brews
brewer
##ibed
##ibillion
arc
arteries
arrows
aramco
##ummer
##agall
##aggress
##agains
##agogue
##agascar
adf
adelson
adrift
donovan
donkey
amerika
outf
outlin
outback
outta
outdo
outdoor
##apable
##apacity
##apaloo
lawfully
attach
attract
coons
coint
coven
cooler
cobain
cokie
cochran
worris
disown
dishe
disbel
dissen
disrupts
dischar
disbands
disench
diseng
disillusion
##ouses
bryan
brides
brien
bricmont
brigitte
brackets
##ipras
elevation
resem
resists
resched
resonds
resumed
herders
herpes
upends
upstate
upbring
warily
warmon
warpl
warlord
warhawks
warehouse
wargames
waronchrist
sciss
scound
scorn
scars
scuffles
scrot
scrooge
scuttle
##izers
##izations
##izoph
wei
webc
weathers
securing
##aste
youvebe
##resser
russiagate
haj
haft
haha
havoc
haqq
##ensing
##ansk
##anship
statecraft
joker
jogger
jovi
pr0
prick
pronounce
prenat
booked
booth
bozo
expires
exposure
expatri
expedited
exporters
expendable
doo
doe
dots
dove
dogan
doxx
doyel
suppose
supplement
##mania
washer
wasfi
##earment
refuted
refuels
referred
refreshing
uss
usually
tahmo
flun
flocking
flier
flats
flashes
flays
flatt
flashing
flailing
norfol
##okers
##okee
##ucing
##ucous
##ectics
medved
meddled
medellin
northam
northrop
cane
canaver
cankles
canadians
blacked
blackpr
blackwater
blacktivists
blackberr
blackrail
imus
imran
imbro
imbec
tees
teigan
teasing
oral
orph
orwell
orbit
##inawa
roar
roost
roose
robo
roaring
rofl
roars
rogan
roamed
roiled
rogen
sync
sylville
##reates
intend
backpack
backseat
noose
noises
##avoj
##eca
##ecating
##ecology
##actice
maya
mayday
protocol
prototyp
taxing
##ftime
##athir
alloc
allred
allison
##arde
courting
banqu
banished
bangk
bananas
grilling
grinds
grinder
gripping
grieve
grueling
grudges
firsth
##gressmen
defected
defused
defection
defici
defeats
deflate
deficits
defecating
comma
commons
commuted
commenters
commiseration
commodities
##icki
parted
partly
partiers
mania
manny
manmade
manatee
antich
constern
conscience
consistent
geert
mole
moons
moines
moots
terrifies
terrym
showbo
showcase
turley
turbines
apples
apprehens
appetite
sao
sauce
sample
##ervised
205
colander
colored
colby
colmes
interced
interstate
intervenes
##itionally
whatsa
##ningshow
gopdebate
dealmaker
dealmaking
marina
marking
marred
marries
marthaf
antihillary
antiwar
tales
policemen
lob
loop
lobs
loathing
lovin
lovely
lozen
loesch
quell
quashed
quigley
campaigned
campaigners
downlo
downright
##undo
seeps
seehof
terrorizes
finest
finely
finishes
carville
carmakers
carrey
carcass
##erney
##ernism
accur
accosts
miley
milner
milano
contrav
racing
telltale
##epresident
##epoint
##adeh
##retation
##cled
##clone
invoke
invisible
parish
parked
parker
parole
parsons
paratro
parallax
yearbooks
##berly
##berish
##berman
##berger
indians
indisc
indicate
indicating
inducing
confer
schne
schengen
schiavo
schizoph
guo
guam
guang
guerilla
monte
monde
monsters
militarily
ops
operate
opium
ophel
##hero
depth
deposed
depicted
depiction
eviction
evicting
##ogans
##ogists
phara
phrase
compounds
compiled
compassion
compaore
gunz
workforce
sheet
sheikh
endowment
endearment
immense
immature
immune
detects
detrim
superman
##outhillary
puto
amen
amish
amounts
butch
button
butcher
##renic
asses
assure
assume
assigned
asshat
asserts
judd
judged
cnnfakenews
cnnleaks
cnnleak
helen
recite
recast
recites
recuses
recolle
recreational
recommits
debat
debar
debit
debts
debated
debacle
debris
debauch
charm
charms
##ugn
##geries
top15
formerly
sof
soaked
##roportionate
emt
emission
eminent
emmys
emoj
##onditionally
southside
turkmen
visible
visual
daytime
remake
remorse
remitt
rematch
reminisc
remotely
claus
claire
claws
##getic
sang
sanity
sangu
sanbern
perch
perino
pervert
perished
perils
perkins
perhaps
perceived
voided
voicing
mae
maur
maire
maup
maverick
everglades
evergreen
becerra
secures
epile
##yscrap
harold
harrow
harrass
conservation
underdog
underhanded
underbelly
bored
borussia
shoulder
insignificant
faction
factual
##azed
righties
bigly
biggie
decor
decency
decaprio
decaying
deconfl
awan
awol
awareness
destined
shook
shoves
missions
islamize
islamof
impover
impunity
##quent
##quiao
sanding
sandoval
adventure
adversary
viola
violin
violator
pms
##riad
regiment
swan
swir
swore
swell
swag
swoll
sword
swimmer
swells
polluted
invested
deserving
deserter
themes
deli
delicate
delaware
delhi
deloitte
delirium
supportive
judgement
retort
retool
retards
retires
retract
retrain
retraining
lego
legit
legion
legroom
facepal
corrid
cordon
corinth
##enex
studies
governorate
urinary
urinals
forego
##ongchang
discomfort
##isexual
stride
striker
raek
rappers
raucous
veers
veins
veils
runway
runners
foreigner
transl
transhuman
transactions
schoolhouse
schoolboy
drian
drastic
dracon
drubbing
dracula
drummer
surged
surging
surpass
surgeries
cruzsexsc
##boxes
beforehand
annh
annul
citgo
timefr
sling
slot
slate
slant
slows
slides
slanted
slumps
slavoj
slogans
barr
barges
barber
barlet
barbed
##uese
panera
berned
humming
humorist
hummm
header
headache
payers
payne
postions
postcard
postmod
infam
infusion
infection
infinity
infographic
infestation
infinite
genial
generate
generates
generated
gennifer
explores
nationality
nationalizing
relation
reloc
relied
relative
relativism
relisting
nyse
feature
prelim
preamble
ours
wows
bros
broach
brokers
##market
braw
bravery
poo
popped
poignant
propels
prophec
busiest
##weger
mcclatch
worlds
worldstar
freebie
freeamir
smashed
smokers
buchan
buenos
##eeping
childcare
##gedlives
##boards
##booz
holed
holster
holidays
peed
peers
peasants
peirce
##xteen
incest
incomes
incensed
incursion
incapable
nowicki
ape
apost
aparthe
betrays
bettors
##kewar
##keurig
##otherap
##sonite
playground
refugeeswelcome
##ordstrom
wallstre
##heart
hurl
hurry
kidman
travesty
ides
ideal
idyll
budgets
departures
stares
starved
starvation
##lined
snatch
snotty
dengue
administrative
acre
acquir
bombastic
despise
coales
coalitions
tards
murph
fares
irks
irna
grabbed
gravity
timber
trees
tread
treads
##reaming
dane
danny
danfor
bennett
publix
firecr
firemen
firecol
firebom
##anna
extorts
sermon
elbows
elaborate
teddy
tednugent
prominence
reformed
peacemaker
cope
copying
coptic
keeper
realities
realizing
realistic
realne
funder
functions
paltrow
##upervised
communion
communique
fiore
fierc
fiji
listing
concent
picket
radically
effie
effects
stepson
stepdaughter
burry
handy
handful
handlers
boykin
steaks
steady
steppe
stevie
steagall
flagged
patel
pataki
paulo
exclude
messes
messing
messier
messaging
approaches
erin
erica
erased
eradicated
happily
happiest
drains
drafts
dropkicks
dropouthillary
classify
classification
truths
113
118
112
##ckley
freeman
freitekh
frequent
revises
revoked
##banks
conventions
teamed
emailing
corruptocrats
edition
shutters
rupture
flyer
flyers
somber
105
108
calculated
caledonia
##gnog
globo
condi
condone
condones
condesc
myers
myriad
restructure
restores
macon
macos
independents
litmus
rejuven
halftime
hadi
hadid
haddad
electroc
electrical
florence
assaulter
dispel
dispir
disproportionate
##iplomatic
viewer
viewing
goodman
goodwill
profiles
profiting
profiteers
legality
dncwalk
frau
fraught
##borgs
lieberman
deviant
devolution
hamish
femi
femen
empires
subban
startup
##govern
ambition
homage
failings
##idental
markey
##sheets
##backs
inaugurated
rebuttal
holdup
staffing
stafford
fraudsters
fraudulent
kingpin
possessed
screed
cancun
fries
frays
friction
redra
redoub
reductions
challengers
crowe
crowell
damian
##ssa
aborting
mainly
mainten
cams
craze
photograph
##ologies
sumo
sarraj
madison
madagascar
radicalize
choosing
choicer
brilliance
marches
marchers
marchagains
lining
silva
silencing
reviewed
hyped
hypoth
bankrolled
brutalize
brutalized
egyptians
audacity
civics
penned
penzeys
skill
skier
skyl
skitt
skank
skyscrap
bombshells
addict
addition
addicted
chicagoans
curate
curtsy
curses
cheese
balks
ballet
baloney
##ocrity
baboon
moran
morally
morals
morale
morph
moraw
morris
morrison
mena
menus
replay
rubbing
rubble
disguised
launcher
launching
launchers
breakup
123
129
127
singling
crowded
crowdstr
greyh
hardcore
hardwick
ckkk
hotter
hotcakes
modified
baseless
basements
glock
glue
glitz
glittery
glitzy
glutton
##ethillary
dukes
nativity
kreme
malic
malay
malice
malign
malpr
malnut
pelt
##pring
##prits
distorts
distaste
clearer
clearances
##phin
leakin
prosecutes
tripwire
transgendered
pakistanis
ballpar
balloons
ballgame
drugging
oilfield
potatoes
throwdown
walter
wallet
muft
mukas
##ardsmith
sarahsanders
ivana
ivankagate
offerings
middlebury
cynic
cyrus
cyclone
cyborgs
##seld
programming
entrep
artan
articul
artifacts
ethically
affords
affaires
affirmed
affidav
##ylocks
15m
15s
154
159
152
15th
sickens
termination
terminate
##mingham
anthrax
employing
turnoff
turnaround
safely
goldmine
hellish
throughout
appointing
nawaz
battlefield
1000
unitedhealth
roleplay
salon
salvo
salma
salaries
##pared
##parts
crookedmay
194
1930
190k
cleans
cleats
futur
futures
suga
defenders
mattla
lima
limelight
provoked
totals
deepak
energetic
predators
predatory
predawn
predicting
predicament
juaqu
juppe
131
134
carols
chriswall
foam
footh
stayed
systemic
rockville
beatdown
frontal
niggas
niggaz
pauses
pawns
rioter
kimberly
wingnut
##glio
churchill
swede
trainwre
contrived
effortlessly
economically
criminality
birmingham
progressivism
superp
superbow
supercharged
superhero
supermarket
flashbackfriday
okays
okinawa
alienating
dolls
waiter
eased
fearful
hatched
outsider
commented
councilman
complac
complicate
insurgent
insurrection
seriousness
sellout
blowout
blowback
references
financiers
casings
caskets
casket
cascade
casella
loudon
differs
difficul
opting
deporting
virginity
boycottpen
boycottcnn
boycotttar
boycottkellog
boycottkeurig
favour
creed
riddance
strongmen
##otho
royals
victima
victimized
fireshep
handsome
valet
honed
honolul
##ternal
spymania
scarce
scarves
scariest
corpus
religions
treaties
nigerien
receipt
receipts
eventual
inflation
furiously
##pective
bookkeeper
bookstore
cenk
jungle
##bbers
informative
checkers
checkmate
checkpoints
kek
keiser
guilfo
guiliani
sanctuaries
importing
pollsters
bundestag
centre
centuries
fatherly
fatherless
jima
briefcase
namesake
takeoff
vacay
vacated
##ukkah
requesting
opera
141
149
142
cowboy
mispl
misrata
misdeme
misgender
blackliesmatter
directv
flew
fleet
stoop
stomps
dismember
experi
educate
306
30th
magical
##andered
unconditionally
confederacy
50k
locate
electorate
maxx
costly
eyeball
waterski
##mberg
greenhouse
pleading
pleased
pleasing
sixty
tournament
stevebannon
confederatef
heartfelt
metoo
meteor
overst
strain
straws
fanning
shortlist
amended
dumbed
portrays
##ascism
searched
##oteric
##senkru
succumb
caption
captive
rescuers
guessing
apartments
fixed
argentinian
251
253
powwow
savior
saviors
saviour
godman
marriages
footprint
lockhim
traders
groundwork
appeared
raiders
nonpartisan
counselor
counselors
displacing
faltering
landmine
landmines
favoriting
blasting
hawking
pricey
primal
posers
##ricting
unprov
unpunished
counterfeit
counterparts
cheerful
cheerleading
moviegoing
fairy
fairfax
fairbanks
excites
excitation
exclamation
mistaken
thoughtless
levies
levied
unveiling
jeffries
jeffrey
anyonebut
hungarians
187
pete
peta
solely
solicit
severity
severance
unlocking
vetoed
##walking
##roduce
connotation
lavelle
lavishes
crypt
problematic
chuckie
unfazed
appealed
amendmented
domination
dominated
pretended
formidable
linkedin
wedge
processed
clark
watchdogs
disturb
blacklivesmatterterror
beneath
jihadis
laser
mcpain
mcgovern
separated
diesel
pacs
pacifist
pacquiao
packing
packet
packaging
voltron
zealot
##aganza
backfiring
confirmations
skewed
##blue
##thegrammys
beneficial
henry
obstinately
engulf
engdahl
accountant
illiterate
illusions
smallest
fleece
gingerly
tenfold
analogy
introduction
sharpen
sharpsho
170
172
60s
narrated
narrator
steinem
21peo
rushmore
torturing
tortoises
deceive
deceives
deceased
crasher
crashers
carryn
delegitim
beginners
neolib
neocol
peddler
tanning
##edience
trucker
undeter
undetected
undiplomatic
remembering
burners
161
162
spotting
##ogne
huntrep
lonely
involve
guarding
singlehand
dials
dialectics
janitors
##uxite
trafficked
trafficker
instruction
undersc
undersea
coastguard
dissing
dissolve
cannons
gradual
feeders
digging
digisexual
tuned
triggly
tribeca
stationed
snowmob
snowstorm
photosho
established
feras
fitting
garners
hersh
hershel
multibillion
ramsey
##offs
shamefully
weaker
roadblocking
roadblocks
salesman
easterners
creepily
224
dodgy
dodged
scoring
scorns
wealthiest
berating
cardboard
mailer
mailman
mailboxes
squatters
sharehol
shareholders
labelled
labeouf
basedstick
storefront
chemist
##raphing
surveilled
slapping
mandar
vaunts
heckling
splc
splash
boobs
devastate
hammering
witchery
witchcraft
##plays
##plained
shipped
cancerous
lighting
lightly
rosy
rosa
sleaze
sleezy
torped
restricting
restrictive
suggestions
cupp
eighty
eighteen
chantilly
beatings
disclosing
coldplay
southerner
speedy
designers
behaves
deray
derided
dereck
gmail
kirby
pipe
tightening
tightrope
projectile
projectiles
disruptions
disruptj20
hampered
retirees
discriminates
lackey
papuan
congenital
congolese
disappears
upsurge
shutdowns
contracted
lung
villas
innov
##etheright
##vertently
confidential
discovering
performers
rebuked
developer
fatwa
toni
strangle
strangelo
worthless
hangouts
shipbu
dogged
surrounding
masse
masquer
pageant
samuel
samsonite
santas
santilli
implies
implant
implode
implanted
brownback
237
2325
figured
lindell
odor
odell
demonizes
demonized
announcements
drawdown
275
2700
400k
tyra
##babies
towel
ancestors
scalp
scalping
expressing
quoting
recruited
undermined
postponing
flagship
privileged
leveled
describing
described
czechs
paperwork
##ourage
bridgewater
courtship
williamsburg
bolt
bolsters
kissed
##ridis
deterred
deterrent
deterring
deterrence
angered
angerbabies
abdo
abdul
willingness
##apolis
boatload
retaliatory
preventing
nhk
occult
simmer
simmers
resisting
resistant
delusions
kidnappers
revolutionaries
filmmakers
sleepless
equates
equipped
equilib
merck
mergers
mermaids
meredith
telegram
##iltaries
inquiries
aggressor
brandenburg
imagery
imagination
softening
softball
emotion
inspire
inspection
walkout
doublespeak
understandable
uraniumoned
280
cartel
cartoons
fingerprint
perspective
ww3
##aaaa
liberator
implementing
slowing
1997
1990s
pisses
ripe
suitable
unleashed
museums
mariah
revenues
modeling
kneeled
groper
khanaq
psyop
psywar
sinatra
whitespl
learning
subscription
exams
examines
examination
examined
examiner
unitetheright
almighty
columnists
feuding
snapchat
faithful
azeri
azerbai
bleaches
fiscally
osmosis
sloppy
tolerates
tolerated
stalling
prompted
practicing
knockout
unprepared
analyze
pedophilic
researcher
eaten
lester
lesley
leslie
lesotho
luxemb
molestation
piracy
rudaw
sadly
saddened
lecturers
spirits
existence
existential
qualifies
philip
philanders
philosopher
motorway
manufactures
manufacturers
langley
ringo
ringing
inexp
archbish
adopting
adopted
youthful
compromises
compromising
smearing
incomplete
millennialism
65k
bahaha
fakenewsmor
fakenewsabc
malls
minefield
##ovans
blindness
applicants
reckoning
wonderland
calmly
jumper
spreadsheets
accomplishes
negro
negatively
unsure
unskilled
unsupervised
normalcy
intimidated
intimidating
guatemalans
skybridge
technocracy
technocratic
technologies
fantasies
figurehead
cells
jetblue
pinhead
sabadell
trickle
forgives
forgiven
spectre
unequal
scarecrow
carlyle
competes
competent
humiliatingly
weaponized
assemble
assembling
cartoonist
recklessness
extradite
extradited
extradites
coughs
layout
##ields
shelving
sheltered
exception
outcomes
recovering
volunteering
psychic
psychos
subsidiary
phoenixrally
pitiful
##rocopter
fortun
lemonade
platinum
voicemail
matchup
collapsed
pardoning
dyes
duckworth
elders
eldest
eldai
falsified
falsifying
miracles
miracul
munitions
pantsuits
renee
rename
renaming
rumored
rumseld
waver
beheadings
sprung
sprouting
alternatives
bumped
conditioning
distrust
distrib
magnet
obliterating
vulgarities
branko
dupe
duplicates
pilger
pilots
routes
routinely
rifts
verse
vandalizing
cherokee
defecting
defectors
windfall
recalling
recalled
feinberg
smartest
smartphones
snubbing
boycotthamilton
traditionally
disgracefully
disagreeing
platforms
axes
axed
boldest
gigi
giggling
genealogy
rainbows
rabbit
venom
venice
##ambulance
unholy
unmaskers
sensation
looted
settling
settler
farmwork
revolutions
contribution
escapades
creationists
renewing
renewables
demonstration
demonstrators
botches
hubby
leniency
suna
sunglasses
sunset
sunnistan
sunroof
sununu
taser
tasks
##yadurai
trumpsters
spurned
washpost
intervened
indoor
eviscerated
pharmac
peacekeeping
nevertrumpers
modernize
determine
bandit
bandwid
eggnog
elimination
eliminating
iconic
jonben
jonathan
##brianross
reassignment
reassigned
shrillary
closest
adamant
supplied
denials
dismantled
icelandic
icelanders
simpletons
bondholders
fabian
fishy
gathered
hygi
hugo
hugely
jabbing
kooks
railings
railway
ragbag
saints
tsipras
streamed
streamlined
coolest
intolerable
guinean
populists
screenwriter
screenplays
autonomous
150k
microaggress
unpopularity
acknowledging
49ers
467
bastille
cocked
cockpit
certify
folk
fifty
fifteen
kucunich
lorde
pillows
taya
typing
##velt
##veled
thirteen
chicked
shamley
originally
libertarians
transforms
transformers
transformational
barbell
peterson
dumpster
horrifyingly
hookers
engineer
sabotages
aclj
bamn
bambooz
buckeye
darn
darpa
ginsberg
hq2
peeing
pensions
pensacola
##eakable
rehear
rehash
rehang
rehears
rehearing
forecasts
stripper
exploitation
grenell
gridlock
defiantly
participating
interpretation
marksman
guaranteed
assesses
permitted
retreats
belonging
collective
skirted
gladly
gladio
takedowns
indoctrinate
duration
durant
dubya
jenna
porch
ssyhats
trauma
reigns
reignite
reigniting
astrot
scrapped
scrapping
dependence
barca
contradicting
randomly
euroscept
fabricate
fabrication
342
845
842k
gilliani
grossly
hirohito
juror
jurist
jurists
jurisdiction
##acteristic
degeneracy
ankle
ankles
stammering
objection
spillway
plagued
disqualify
disqualifies
intentional
paramount
paramiltaries
oppresses
oppressor
misspelling
funneling
batonrou
homophobes
photographing
bulgarians
scrubs
##feeding
broadcasted
concealing
370
418
51st
creamer
dimwits
frogs
frothing
gorbach
gifs
mathews
moldy
moldylocks
moldovans
orangejumps
pools
tubes
##meade
animals
cautiously
comfortable
resurrect
taunted
definitive
manhand
colonization
detectors
corpses
buddies
restarting
naturalized
satanists
disappearance
bolstered
wonderfull
puppetry
lyinbrianross
jeopardizes
324
3200
550
ayyadurai
bratty
cfius
cocoa
cemeteries
ecb
fistf
fistacuffs
galveston
likened
pours
siemens
stretcher
shaped
shredding
conceded
ashley
repatriated
meatpack
reflections
carpets
inspectors
deliberation
retailers
childishly
101m
crafting
curtail
curtails
greetings
energies
energizer
boycottnordstrom
uncomfortably
portuguese
highlighting
oligopoly
wreckage
retweeting
retweeted
sympathizes
sympathizing
sympathizers
plagiarist
agricultural
614
622
bunny
bakeries
cups
faulkner
hooded
hoodies
jolt
mourns
nursery
oxygen
ratification
roseanne
roseberg
selects
wiping
wrestler
enabling
resource
2024
talebz
confiscates
confiscated
sweetheart
precious
precise
precincts
handcuff
anglophones
formalizes
warshipsto
loudmouths
endangerment
triumphs
360
366
783
924
besides
esoteric
gallop
janeiro
lingering
poker
pimping
tastes
##killer
whitney
unwitting
uncharted
aligns
cruelly
##emonium
blackmailed
intrusive
intrigue
accelerating
emboldens
smoothly
crosby
125k
1967
1988
persisting
beefs
oligarchs
disciplining
uniformed
572
674
austere
biomet
bilderberger
duggan
fiddling
masterfully
ravage
ravages
razak
sicilian
siren
sinkhole
tangled
vanishing
tractor
##eologists
antonio
converting
obscure
exemptions
overcapacity
caveats
adjustments
coincidental
warheads
guerrillas
inspirational
awaiting
impossibly
retribution
retrieves
annexes
barrier
kidnaps
firefight
firefighter
burkas
portrayed
650k
partnerships
succeeds
carpetbag
triumphant
691
dilbert
gwenyth
haggard
lukewar
sustained
tentative
vindication
wtc
trample
tramples
videotaping
whinefest
chronicles
chronology
cloppers
healing
demoralize
combine
combating
plummets
whitewashing
whitewashed
weedkiller
militarized
militaristic
assailed
assailant
imperative
imperiled
discontent
slighted
victorious
relaxing
relaxed
incorporate
incitement
convenience
rejoin
redskin
affiliated
handshakes
villainy
bolivian
bolivians
physicist
marshalls
salvadoran
gerrymandered
annihilates
orthodoxy
avenge
avenue
bauxite
baffled
cspan
daimler
dental
dowd
essay
essence
liaison
oddly
pdvsa
rodman
rodham
tussauds
tattoos
theron
anxious
androids
proclamation
sputtering
exonerate
exoneration
unnamed
blondes
blasphem
lagarde
tweaking
caesars
enriched
scanning
mediocrity
integrate
consulates
consulting
appropriating
militiaman
assurance
sanctioned
decreased
knifepoint
improper
swimmers
descended
coronate
generous
generations
generosity
pumpkin
convincing
disparate
disparage
disparities
redistricting
earnest
diverge
diverges
misunderstood
grandmothers
mistresses
volatility
memoirs
fauxchahontas
extravaganza
equipay
tabloids
shrinks
hydra
bastardization
recommendation
safeguard
0045
aaron
cassandra
corsican
dalai
ebony
gibberish
hayek
lucas
liveris
mansplained
mascot
nullification
pfizer
ponder
ponzi
pantyh
pantomime
pokego
puzzles
ribs
ribbon
ribbons
sunken
varney
ventura
vendors
waxes
yankuang
##oppable
reunited
dementia
chapter
seethe
unattended
offset
offspring
breastfeeding
cookies
rooftops
syngas
loopholes
downsize
containers
evaluation
recaptures
maidan
maiden
undercutting
decisively
impressed
delightfully
rappoport
incentive
bursting
convictions
cancellations
sarcasm
auditorium
chechnya
babysat
babysit
babysitting
absentee
1953
1950s
predecessors
misogyny
misogynist
jackasses
instigator
instructor
deteriorated
persuaded
isolationism
pizzatown
boycottstar
interpreters
ecuadorian
achievements
enthusiastic
flirtatious
indefinite
rothschilds
accommodation
051
bonnie
clyde
dolphin
dustification
fraternity
gimme
hanger
hanukkah
hasta
hughes
hughley
kislyak
mantra
mahal
mahathir
ninth
ninety
ryb
rainsy
vessels
xenophobia
xenophobic
yuuuge
zambian
thunderous
reebok
reorganize
reorganization
stubble
##ospace
shallow
proxy
atmosp
spanking
abolition
unstoppable
unjustified
aluminum
disorders
elephants
scratch
appreciate
2036
confessing
evolv
evolve
assertion
assertions
airplane
impersonate
facilitating
effigy
##flashmob
revisit
litigants
homeowner
fractious
fractured
filipinos
chewing
valuable
dismayed
eyewash
unfortunate
dominant
stockpile
samaritan
samaritans
implicitly
brainiacs
simulated
simulcast
merchants
championship
motorcycle
motorcyclist
gatecrash
psychoanaly
unmaskings
liquor
queensland
cosmopolitan
acquittals
guillotine
complimenting
discontinue
confidante
supervisors
masturbate
alcoholic
aldean
aldrin
cadillac
dreaded
doping
dopey
erected
ferrari
frogtown
gavin
gavel
h1b
hindering
kiir
kieth
kilter
kilmeade
lidia
mckin
mckesson
nrt
nrc
ndaa
nudging
omran
omaha
ratchets
squeaky
tendency
tendencies
tailspin
vicente
vampire
vampirism
weeping
yanked
yazidi
yazidis
throne
thrones
insecure
insecurity
forestry
##christie
bewildered
atomic
clerics
reproductive
goddamn
exhibit
abstinence
unicorn
unicorns
polygamous
polygamists
cruella
ploys
arrangements
disavow
disavows
resonating
hairdo
hairdresser
defrauding
monarchs
monarchy
mongolia
mongolian
soleimani
percenter
percenters
rafale
fakepresident
fakepresidency
panhandlers
humbled
potsdam
pooper
smokescreen
incriminating
snapped
snapping
serena
funksoul
funks0ul
freeloading
devaluation
hollyweirdness
glossed
centrists
centrism
misfit
displacement
petroleum
mcinerney
oblivion
oblivious
miscalculated
contributor
contributors
diabolical
diabetes
tornadoes
astronauts
contradictory
diminish
diminishing
quadruples
quadrupled
chappaqua
chappaquiddick
wheelchair
wheelchairs
akkuy
bongino
bacterial
cuddle
caleb
dylann
dunkin
dreadlocks
fsb
fizzle
g4s
gilad
glamor
hanson
hottest
icymi
kleenex
kristol
mishandling
maldives
muzzle
psdb
rarely
rousseff
sixteen
sassy
tibet
tissue
uighurs
voucher
wfb
waaambulance
##innati
tolerate
reauthorizes
forcible
foresee
stutters
stymies
chinatown
chopra
isaiah
sectarian
obituary
clusterf
afflicted
exhausted
exterminating
exorcism
unelected
aftershock
lampoons
alphab
bystanders
plunges
brewing
adjusts
adulter
diseases
disbarred
disobedience
elevator
sculpture
prudence
tavistock
governorships
imbalances
tepco
alligators
commemoration
sahara
talentless
quantum
contaminated
parasites
gupta
sobbing
emigre
opposite
armoured
corrobor
schoolgirls
slackers
infantry
preyed
peanut
idolize
snippets
irrit
stepmom
steamrolled
patrons
ernst
ruffles
subjects
dividend
penetration
distorted
entrenched
artificially
pragmatism
juvenile
untouched
microwaves
unconscious
overshadows
scripted
226k
peruvian
landscaper
prioritizing
kirsten
nazareth
accompanying
archaeologists
spoiler
reciprocal
forecloses
stereotype
wannabepresident
bubbles
achievers
mastermind
dwindling
marginalized
deflecting
psychiatric
psychiatrist
masturbating
tumultuous
enshrines
pioneer
pessimists
reclaiming
turncoat
cnnblackmail
shakespearean
aerospace
aisle
alyssa
aardvark
ayaan
avalan
aetna
aesthetically
bwah
bimbo
bimbos
biplanes
cvs
c919
cusp
crescent
cthulhu
culprits
cindy
cincinnati
cibolo
ddos
dortmund
dratch
dahlan
drowning
dahlia
dreyfuss
eroding
eustatius
fischer
faggy
fervor
fidesz
feldman
fabulous
gyrocopter
ggots
gonzale
gassed
glimmer
gremlins
gynecology
gambling
gbagbo
hinckley
hakeem
hirsi
hulk
hensarling
hokey
hanoi
iwo
jitters
jodie
jeddah
kgb
kagans
kaplan
kreepy
kinshas
krispy
lng
liangelo
lallapaloo
littered
lodyte
luhansk
lizzie
liveliest
mgm
mossad
mudsl
nustar
nasser
nissan
nuremberg
nossel
nimble
naysayers
numbskull
oromiya
pierson
peso
pandemonium
pseudonym
pubic
pratt
pahor
pyeongchang
pesticide
qaim
rbg
rourke
rupert
rihanna
rattles
svu
sopa
sullivan
sordid
szydlo
seldom
torso
tonnes
uygur
vrt
vassal
vikings
voodoo
vanguard
vanderbilt
wmds
wdbj
wnba
wrestle
wrangling
wreath
wretched
wahabi
wagering
yeah
yugoslav
yucca
zhong
zbigniew
zurich
zellweger
zapad
zizek
zakharova
##uahua
##oressi
##orweaver
##onialist
toomey
topple
trinket
trespasser
truculent
theodore
threshold
thyssenkru
inadvertently
inhumane
recycled
reintroduce
reynolds
reenactment
##tsharia
foreshadows
##entrumped
dehydration
stowaways
staple
stavridis
stroller
whirl
chateau
chahed
chossudovs
chavez
chatterjee
chihuahua
chambers
##ivilegedlives
shaved
shafik
shaquille
shenanigans
isikoff
sekulow
clitorectomy
reprisals
gofundme
##iecki
spawned
spaniards
presumptive
abrams
abnormalities
aboriginal
unavoidable
unruly
unpleasant
unfulfilled
unannounced
unidentified
unsteady
unafraid
unspeakable
uncharacteristic
unbalanced
uninformed
unacknowledged
politricks
overfloweth
overregulation
##ublicancongressmen
twinkle
mecca
meerkats
russiamania
criteria
combined
senegal
plumbing
outlining
attached
cointel
coveney
worrisome
disowns
disheveled
disbelief
dissenters
discharging
disenchanted
resemble
upbringing
warmongering
waronchristmas
scissors
scoundrel
scrotox
webcam
youvebeentrumped
haftar
haqqani
prenatal
expatriation
supplemental
tahmooressi
norfolk
medvedev
canaveral
blackprivilegedlives
blackberrys
imbroglio
imbecile
orphans
orwellian
roosevelt
banquet
bangkok
firsthand
deficiencies
deflategate
antichrist
consternation
moonshot
terrymcauliffe
apprehensions
intercede
whatsapp
marthaford
antihillaryflashmob
lobster
lozenges
downloaded
seehofer
contravened
paratroopers
indiscretion
schneider
schizophrenic
ophelia
pharaoh
detriment
recollection
debauchery
emoji
reminiscent
sanguine
sanbernardino
maupin
harrowing
harrassed
deconfliction
islamofascism
impoverished
swollen
retracted
corridor
corinthian
raekwon
transhumanism
draconian
surpasses
cruzsexscandal
timeframe
barletta
postmodernism
prophecy
mcclatchy
freeamirnow
buchanan
apartheid
wallstreethillary
acquiring
murphy
danforth
firecracker
firecolbert
firebombed
realnews
fiercest
electrocuted
dncwalkout
redouble
maintenance
marchagainstsharia
skyline
skittles
skyscraper
morawiecki
crowdstrike
greyhound
ckkkk
gluttonous
malpractice
malnutrition
ballparks
mukasey
cynicism
entrepren
affidavit
turnoffthegrammys
crookedmayorweaver
mattlauer
juaquay
chriswallace
foothold
trainwreck
superbowl
difficulty
boycottpenzeys
boycotttarget
boycottkelloggs
fireshepardsmith
honolulu
guilfoyle
misplaced
misdemeanor
waterskiing
lockhimup
unprovoked
anyonebuthillary
blacklivesmatterterrorists
engulfs
sharpshooter
21people
neoliberal
neocolonialist
undeterred
huntrepublicancongressmen
singlehandedly
snowmobile
shareholder
basedstickman
torpedo
strangelove
shipbuild
masquerades
equilibrium
uraniumonedeal
khanaqin
azerbaijan
luxembourg
archbishop
fakenewsmorningshow
miraculously
pharmacological
bandwidth
jonbenet
hygiene
microaggression
bamboozled
astroturfing
batonrouge
gorbachev
orangejumpsuit
talebzadeh
biometric
lukewarm
pantyhose
boycottstarbucks
akkuyu
gonzalez
kinshasa
lallapalooza
thyssenkrupp
chossudovsky
